{
  "version": "1.0",
  "truncation": null,
  "padding": null,
  "added_tokens": [
    {
      "id": 0,
      "content": "[PAD]",
      "single_word": false,
      "lstrip": false,
      "rstrip": false,
      "normalized": false,
      "special": true
    },
    {
      "id": 1,
      "content": "[UNK]",
      "single_word": false,
      "lstrip": false,
      "rstrip": false,
      "normalized": false,
      "special": true
    },
    {
      "id": 2,
      "content": "[CLS]",
      "single_word": false,
      "lstrip": false,
      "rstrip": false,
      "normalized": false,
      "special": true
    },
    {
      "id": 3,
      "content": "[SEP]",
      "single_word": false,
      "lstrip": false,
      "rstrip": false,
      "normalized": false,
      "special": true
    },
    {
      "id": 4,
      "content": "[MASK]",
      "single_word": false,
      "lstrip": false,
      "rstrip": false,
      "normalized": false,
      "special": true
    }
  ],
  "normalizer": {
    "type": "Sequence",
    "normalizers": [
      {
        "type": "NFKC"
      },
      {
        "type": "Lowercase"
      }
    ]
  },
  "pre_tokenizer": {
    "type": "Whitespace"
  },
  "post_processor": null,
  "decoder": null,
  "model": {
    "type": "BPE",
    "dropout": null,
    "unk_token": "[UNK]",
    "continuing_subword_prefix": null,
    "end_of_word_suffix": null,
    "fuse_unk": false,
    "byte_fallback": false,
    "ignore_merges": false,
    "vocab": {
      "[PAD]": 0,
      "[UNK]": 1,
      "[CLS]": 2,
      "[SEP]": 3,
      "[MASK]": 4,
      "!": 5,
      "\"": 6,
      "#": 7,
      "$": 8,
      "%": 9,
      "&": 10,
      "'": 11,
      "(": 12,
      ")": 13,
      "*": 14,
      "+": 15,
      ",": 16,
      "-": 17,
      ".": 18,
      "/": 19,
      "0": 20,
      "1": 21,
      "2": 22,
      "3": 23,
      "4": 24,
      "5": 25,
      "6": 26,
      "7": 27,
      "8": 28,
      "9": 29,
      ":": 30,
      ";": 31,
      "<": 32,
      "=": 33,
      ">": 34,
      "?": 35,
      "@": 36,
      "[": 37,
      "\\": 38,
      "]": 39,
      "^": 40,
      "_": 41,
      "`": 42,
      "a": 43,
      "b": 44,
      "c": 45,
      "d": 46,
      "e": 47,
      "f": 48,
      "g": 49,
      "h": 50,
      "i": 51,
      "j": 52,
      "k": 53,
      "l": 54,
      "m": 55,
      "n": 56,
      "o": 57,
      "p": 58,
      "q": 59,
      "r": 60,
      "s": 61,
      "t": 62,
      "u": 63,
      "v": 64,
      "w": 65,
      "x": 66,
      "y": 67,
      "z": 68,
      "{": 69,
      "|": 70,
      "}": 71,
      "~": 72,
      "": 73,
      "": 74,
      "¢": 75,
      "£": 76,
      "§": 77,
      "©": 78,
      "«": 79,
      "­": 80,
      "®": 81,
      "°": 82,
      "±": 83,
      "·": 84,
      "»": 85,
      "¿": 86,
      "×": 87,
      "ß": 88,
      "à": 89,
      "á": 90,
      "â": 91,
      "ã": 92,
      "ä": 93,
      "å": 94,
      "æ": 95,
      "ç": 96,
      "è": 97,
      "é": 98,
      "ê": 99,
      "ë": 100,
      "í": 101,
      "î": 102,
      "ï": 103,
      "ñ": 104,
      "ò": 105,
      "ó": 106,
      "ô": 107,
      "ö": 108,
      "÷": 109,
      "ø": 110,
      "ú": 111,
      "ü": 112,
      "ý": 113,
      "ā": 114,
      "ă": 115,
      "ć": 116,
      "č": 117,
      "ę": 118,
      "ı": 119,
      "ĵ": 120,
      "ĸ": 121,
      "ł": 122,
      "ń": 123,
      "ś": 124,
      "ş": 125,
      "š": 126,
      "ų": 127,
      "ź": 128,
      "ƒ": 129,
      "ɑ": 130,
      "ɛ": 131,
      "˂": 132,
      "ˆ": 133,
      "ˉ": 134,
      "́": 135,
      "̄": 136,
      "̅": 137,
      "̇": 138,
      "̈": 139,
      "̊": 140,
      "α": 141,
      "β": 142,
      "γ": 143,
      "δ": 144,
      "ε": 145,
      "η": 146,
      "θ": 147,
      "ι": 148,
      "κ": 149,
      "λ": 150,
      "μ": 151,
      "π": 152,
      "ρ": 153,
      "σ": 154,
      "τ": 155,
      "φ": 156,
      "χ": 157,
      "ψ": 158,
      "ω": 159,
      "ϝ": 160,
      "к": 161,
      "п": 162,
      "р": 163,
      "қ": 164,
      "׳": 165,
      "​": 166,
      "‐": 167,
      "‒": 168,
      "–": 169,
      "—": 170,
      "‖": 171,
      "‘": 172,
      "’": 173,
      "“": 174,
      "”": 175,
      "•": 176,
      "‰": 177,
      "′": 178,
      "‹": 179,
      "⁄": 180,
      "€": 181,
      "→": 182,
      "↓": 183,
      "∂": 184,
      "∆": 185,
      "∇": 186,
      "∈": 187,
      "−": 188,
      "∓": 189,
      "∕": 190,
      "∗": 191,
      "∙": 192,
      "√": 193,
      "∝": 194,
      "∞": 195,
      "∶": 196,
      "∼": 197,
      "≈": 198,
      "≠": 199,
      "≤": 200,
      "≥": 201,
      "≦": 202,
      "≧": 203,
      "≫": 204,
      "≯": 205,
      "⊟": 206,
      "⊥": 207,
      "△": 208,
      "○": 209,
      "☆": 210,
      "♀": 211,
      "♂": 212,
      "♦": 213,
      "⩽": 214,
      "⩾": 215,
      "〈": 216,
      "〉": 217,
      "": 218,
      "": 219,
      "re": 220,
      "in": 221,
      "th": 222,
      "ti": 223,
      "an": 224,
      "on": 225,
      "en": 226,
      "er": 227,
      "al": 228,
      "ed": 229,
      "the": 230,
      "or": 231,
      "as": 232,
      "at": 233,
      "es": 234,
      "ati": 235,
      "of": 236,
      "and": 237,
      "ent": 238,
      "ar": 239,
      "is": 240,
      "ic": 241,
      "ro": 242,
      "to": 243,
      "we": 244,
      "ing": 245,
      "st": 246,
      "co": 247,
      "ve": 248,
      "se": 249,
      "it": 250,
      "ac": 251,
      "si": 252,
      "le": 253,
      "ation": 254,
      "ith": 255,
      "de": 256,
      "ur": 257,
      "with": 258,
      "di": 259,
      "ly": 260,
      "for": 261,
      "ents": 262,
      "ec": 263,
      "ter": 264,
      "lo": 265,
      "were": 266,
      "mp": 267,
      "pati": 268,
      "ce": 269,
      "res": 270,
      "me": 271,
      "was": 272,
      "tion": 273,
      "ul": 274,
      "un": 275,
      "ho": 276,
      "patients": 277,
      "us": 278,
      "ad": 279,
      "per": 280,
      "ag": 281,
      "con": 282,
      "be": 283,
      "tr": 284,
      "ch": 285,
      "mo": 286,
      "po": 287,
      "no": 288,
      "up": 289,
      "red": 290,
      "il": 291,
      "ut": 292,
      "id": 293,
      "pro": 294,
      "ated": 295,
      "ity": 296,
      "ver": 297,
      "ap": 298,
      "ab": 299,
      "ant": 300,
      "ren": 301,
      "ci": 302,
      "sp": 303,
      "ate": 304,
      "he": 305,
      "ment": 306,
      ").": 307,
      "ig": 308,
      "ol": 309,
      "ex": 310,
      "ff": 311,
      "tive": 312,
      "ud": 313,
      "ical": 314,
      "if": 315,
      "am": 316,
      "cl": 317,
      "comp": 318,
      "su": 319,
      "gro": 320,
      "00": 321,
      "tic": 322,
      "ir": 323,
      "ass": 324,
      "group": 325,
      "ted": 326,
      "ts": 327,
      "val": 328,
      "im": 329,
      "qu": 330,
      "ys": 331,
      "ine": 332,
      "um": 333,
      "der": 334,
      "ess": 335,
      "gn": 336,
      "are": 337,
      "age": 338,
      "om": 339,
      "dis": 340,
      "sep": 341,
      "ne": 342,
      "igh": 343,
      "ther": 344,
      "bet": 345,
      "ain": 346,
      "med": 347,
      "od": 348,
      "sur": 349,
      "ific": 350,
      "rom": 351,
      "ear": 352,
      "sion": 353,
      "),": 354,
      "low": 355,
      "by": 356,
      "stud": 357,
      "vi": 358,
      "ase": 359,
      "all": 360,
      "sign": 361,
      "af": 362,
      "do": 363,
      "ary": 364,
      "gr": 365,
      "pre": 366,
      "ph": 367,
      "study": 368,
      "li": 369,
      "ative": 370,
      "from": 371,
      "out": 372,
      "cre": 373,
      "em": 374,
      "ence": 375,
      "uc": 376,
      "tro": 377,
      "ween": 378,
      "between": 379,
      "pres": 380,
      "cor": 381,
      "sy": 382,
      "signific": 383,
      "mon": 384,
      "pl": 385,
      "significant": 386,
      "tal": 387,
      "ations": 388,
      "year": 389,
      "ective": 390,
      "te": 391,
      "diff": 392,
      "pr": 393,
      "log": 394,
      "fo": 395,
      "rel": 396,
      "ty": 397,
      "one": 398,
      "oci": 399,
      "ure": 400,
      "anal": 401,
      "eren": 402,
      "ll": 403,
      "act": 404,
      "tre": 405,
      "ge": 406,
      "par": 407,
      "com": 408,
      "gen": 409,
      "had": 410,
      "this": 411,
      "can": 412,
      "est": 413,
      "ma": 414,
      "sis": 415,
      "ten": 416,
      "after": 417,
      "sco": 418,
      "ob": 419,
      "hy": 420,
      "inter": 421,
      "valu": 422,
      "resp": 423,
      "pa": 424,
      "cy": 425,
      "differen": 426,
      "ha": 427,
      "ction": 428,
      "that": 429,
      "car": 430,
      "imp": 431,
      "ser": 432,
      "inf": 433,
      "tom": 434,
      "%)": 435,
      "high": 436,
      "fi": 437,
      "ari": 438,
      "not": 439,
      "wh": 440,
      "bo": 441,
      "pe": 442,
      "cr": 443,
      "cer": 444,
      "ors": 445,
      "ia": 446,
      "associ": 447,
      "str": 448,
      "ven": 449,
      "ved": 450,
      "who": 451,
      "tho": 452,
      "por": 453,
      "ris": 454,
      "min": 455,
      "ls": 456,
      "ance": 457,
      "ong": 458,
      "mal": 459,
      "cur": 460,
      "years": 461,
      "sub": 462,
      "ial": 463,
      "tw": 464,
      "ased": 465,
      "clin": 466,
      "10": 467,
      "ast": 468,
      "under": 469,
      "use": 470,
      "cent": 471,
      "reg": 472,
      "than": 473,
      "surg": 474,
      "ous": 475,
      "there": 476,
      "und": 477,
      "analys": 478,
      "risk": 479,
      "eff": 480,
      "ared": 481,
      "ion": 482,
      "cal": 483,
      "heal": 484,
      "treat": 485,
      "fol": 486,
      "ular": 487,
      "vari": 488,
      "19": 489,
      "iz": 490,
      "ers": 491,
      "op": 492,
      "contro": 493,
      "so": 494,
      "ital": 495,
      "ct": 496,
      "compared": 497,
      "peri": 498,
      "assess": 499,
      "hi": 500,
      "dur": 501,
      "ke": 502,
      "health": 503,
      "12": 504,
      "95": 505,
      "perfor": 506,
      "ind": 507,
      "groups": 508,
      "mean": 509,
      "follow": 510,
      "incre": 511,
      "lic": 512,
      "leve": 513,
      "dat": 514,
      "ect": 515,
      "ree": 516,
      "end": 517,
      "perative": 518,
      "treatment": 519,
      "using": 520,
      "sa": 521,
      "more": 522,
      "ra": 523,
      "able": 524,
      "ug": 525,
      "over": 526,
      "ual": 527,
      "whe": 528,
      "meas": 529,
      "ild": 530,
      "20": 531,
      "clinical": 532,
      "200": 533,
      "ight": 534,
      "grap": 535,
      "evalu": 536,
      "hosp": 537,
      "ces": 538,
      "les": 539,
      "ay": 540,
      "inv": 541,
      "two": 542,
      "ans": 543,
      "dise": 544,
      "bi": 545,
      "ory": 546,
      "ases": 547,
      "clud": 548,
      "diag": 549,
      "diagno": 550,
      "omen": 551,
      "ater": 552,
      "mul": 553,
      "month": 554,
      "term": 555,
      "used": 556,
      "ach": 557,
      "patient": 558,
      "iti": 559,
      "non": 560,
      "ectively": 561,
      "pred": 562,
      "hospital": 563,
      "ang": 564,
      "enti": 565,
      "mor": 566,
      "significantly": 567,
      "women": 568,
      "sho": 569,
      "vid": 570,
      "care": 571,
      "associated": 572,
      "time": 573,
      "child": 574,
      "ds": 575,
      "data": 576,
      "ates": 577,
      "ew": 578,
      "cancer": 579,
      "analysis": 580,
      "during": 581,
      "disease": 582,
      "fact": 583,
      "tions": 584,
      "br": 585,
      "ca": 586,
      "tra": 587,
      "includ": 588,
      "ies": 589,
      "spec": 590,
      "therap": 591,
      "predic": 592,
      "pos": 593,
      "ced": 594,
      "anti": 595,
      "but": 596,
      "esti": 597,
      "vs": 598,
      "ep": 599,
      "ects": 600,
      "cho": 601,
      "have": 602,
      "ery": 603,
      "test": 604,
      "acti": 605,
      "ally": 606,
      "ist": 607,
      "their": 608,
      "lu": 609,
      "exam": 610,
      "man": 611,
      "stic": 612,
      "ures": 613,
      "cardi": 614,
      "repor": 615,
      "ber": 616,
      "surgery": 617,
      "lec": 618,
      "posi": 619,
      "inal": 620,
      "11": 621,
      "ble": 622,
      "ard": 623,
      "months": 624,
      "ici": 625,
      "total": 626,
      "nor": 627,
      "ility": 628,
      "%,": 629,
      "whether": 630,
      "higher": 631,
      "performed": 632,
      "ort": 633,
      "view": 634,
      "therapy": 635,
      "15": 636,
      "respon": 637,
      "requ": 638,
      "ace": 639,
      "fun": 640,
      "fe": 641,
      "rate": 642,
      "ting": 643,
      "+/": 644,
      "ss": 645,
      "these": 646,
      "des": 647,
      "fied": 648,
      "+/-": 649,
      "both": 650,
      "children": 651,
      "oc": 652,
      "cei": 653,
      "ta": 654,
      "13": 655,
      "ange": 656,
      "related": 657,
      "function": 658,
      "king": 659,
      "inde": 660,
      "pul": 661,
      "del": 662,
      "tomy": 663,
      "cond": 664,
      "14": 665,
      "resul": 666,
      "medi": 667,
      "men": 668,
      "ants": 669,
      "char": 670,
      "mptom": 671,
      "col": 672,
      "vity": 673,
      "dr": 674,
      "among": 675,
      "identi": 676,
      "respectively": 677,
      "post": 678,
      "those": 679,
      "mat": 680,
      "vers": 681,
      "cases": 682,
      "our": 683,
      "curren": 684,
      "show": 685,
      "scop": 686,
      "ill": 687,
      "cip": 688,
      "da": 689,
      "blo": 690,
      "present": 691,
      "ric": 692,
      "el": 693,
      "cord": 694,
      "operative": 695,
      "os": 696,
      "001": 697,
      "logical": 698,
      "na": 699,
      "udi": 700,
      "tu": 701,
      "ained": 702,
      "ined": 703,
      "18": 704,
      "multi": 705,
      "come": 706,
      "only": 707,
      "tec": 708,
      "symptom": 709,
      "parti": 710,
      "line": 711,
      "other": 712,
      "been": 713,
      "radi": 714,
      "levels": 715,
      "ju": 716,
      "three": 717,
      "ugh": 718,
      "control": 719,
      "fr": 720,
      "ques": 721,
      "30": 722,
      "fir": 723,
      "survi": 724,
      "studi": 725,
      "ving": 726,
      "tri": 727,
      "recei": 728,
      "vis": 729,
      "does": 730,
      "ating": 731,
      "sti": 732,
      "phys": 733,
      "ich": 734,
      "its": 735,
      "def": 736,
      "included": 737,
      "atic": 738,
      "found": 739,
      "16": 740,
      "ational": 741,
      "spective": 742,
      "go": 743,
      "form": 744,
      "aim": 745,
      "cont": 746,
      "sive": 747,
      "uld": 748,
      "positive": 749,
      "tis": 750,
      "ression": 751,
      "cell": 752,
      "based": 753,
      "idence": 754,
      "increased": 755,
      "has": 756,
      "subj": 757,
      "impro": 758,
      "cu": 759,
      "01": 760,
      "hip": 761,
      "normal": 762,
      "wor": 763,
      "obser": 764,
      "ability": 765,
      "yo": 766,
      "ized": 767,
      "24": 768,
      "section": 769,
      "ii": 770,
      "istic": 771,
      "which": 772,
      "mic": 773,
      "comple": 774,
      "bl": 775,
      "sure": 776,
      "mi": 777,
      "factors": 778,
      "graph": 779,
      "25": 780,
      "tional": 781,
      "differences": 782,
      "sed": 783,
      "determ": 784,
      "determine": 785,
      "without": 786,
      "ication": 787,
      "prim": 788,
      "ior": 789,
      "dia": 790,
      "lower": 791,
      "mis": 792,
      "cul": 793,
      "ments": 794,
      "went": 795,
      "pend": 796,
      "ri": 797,
      "cess": 798,
      "ks": 799,
      "retro": 800,
      "05": 801,
      "fore": 802,
      "vic": 803,
      "estig": 804,
      "investig": 805,
      "underwent": 806,
      "met": 807,
      "acter": 808,
      "velo": 809,
      "ms": 810,
      "gener": 811,
      "difference": 812,
      "tum": 813,
      "inj": 814,
      "mar": 815,
      "tes": 816,
      "survival": 817,
      "particip": 818,
      "blood": 819,
      "ail": 820,
      "vas": 821,
      "inc": 822,
      "trans": 823,
      "qual": 824,
      "score": 825,
      "period": 826,
      "pain": 827,
      "ses": 828,
      "mortal": 829,
      "outcome": 830,
      "medical": 831,
      "num": 832,
      "mm": 833,
      "logy": 834,
      "mun": 835,
      "sen": 836,
      "mortality": 837,
      "long": 838,
      "17": 839,
      "less": 840,
      "howe": 841,
      "wee": 842,
      "however": 843,
      "ute": 844,
      "rati": 845,
      "most": 846,
      "sh": 847,
      "also": 848,
      "complic": 849,
      "zed": 850,
      "level": 851,
      "cep": 852,
      "graphy": 853,
      "cri": 854,
      "stand": 855,
      "usion": 856,
      "did": 857,
      "reported": 858,
      "primary": 859,
      "stat": 860,
      "ign": 861,
      "uro": 862,
      "sing": 863,
      "av": 864,
      "stati": 865,
      "samp": 866,
      "ile": 867,
      "review": 868,
      "stem": 869,
      "results": 870,
      "rates": 871,
      "cin": 872,
      "ath": 873,
      "statistic": 874,
      "adju": 875,
      "plas": 876,
      "coun": 877,
      "surgical": 878,
      "each": 879,
      "velop": 880,
      "199": 881,
      "develop": 882,
      "uction": 883,
      "50": 884,
      "ref": 885,
      "arter": 886,
      "first": 887,
      "different": 888,
      "when": 889,
      "rec": 890,
      "aff": 891,
      "treated": 892,
      "comes": 893,
      "mil": 894,
      "showed": 895,
      "type": 896,
      "ite": 897,
      "divid": 898,
      "ade": 899,
      "specific": 900,
      "vent": 901,
      "posto": 902,
      "outcomes": 903,
      "postoperative": 904,
      "endo": 905,
      "vol": 906,
      "psy": 907,
      "order": 908,
      "ish": 909,
      "infec": 910,
      "bre": 911,
      "proced": 912,
      "cis": 913,
      "lif": 914,
      "ung": 915,
      "ency": 916,
      "diagnosis": 917,
      "days": 918,
      "iter": 919,
      "subjects": 920,
      "ful": 921,
      "main": 922,
      "popul": 923,
      "hyper": 924,
      "gre": 925,
      "symptoms": 926,
      "fem": 927,
      "soci": 928,
      "system": 929,
      "assessed": 930,
      "ide": 931,
      "au": 932,
      "number": 933,
      "range": 934,
      "ane": 935,
      "ves": 936,
      "pression": 937,
      "question": 938,
      "surve": 939,
      "very": 940,
      "thro": 941,
      "lar": 942,
      "predict": 943,
      "rand": 944,
      "four": 945,
      "analy": 946,
      "median": 947,
      "random": 948,
      "thy": 949,
      "onic": 950,
      "before": 951,
      "radio": 952,
      "graphic": 953,
      "effect": 954,
      "sel": 955,
      "regression": 956,
      "weight": 957,
      "scores": 958,
      "compar": 959,
      "ratio": 960,
      "ured": 961,
      "appro": 962,
      "correl": 963,
      "character": 964,
      "action": 965,
      "now": 966,
      "tern": 967,
      "cular": 968,
      "measure": 969,
      "ness": 970,
      "studies": 971,
      "evaluated": 972,
      "experi": 973,
      "adjust": 974,
      "set": 975,
      "index": 976,
      "meter": 977,
      "association": 978,
      "gu": 979,
      "like": 980,
      "frequ": 981,
      "quality": 982,
      "sup": 983,
      "versus": 984,
      "identified": 985,
      "40": 986,
      "injur": 987,
      "tran": 988,
      "measured": 989,
      "22": 990,
      "gram": 991,
      "overall": 992,
      "into": 993,
      "ination": 994,
      "cle": 995,
      "patho": 996,
      "chang": 997,
      "neg": 998,
      "aging": 999,
      "lected": 1000,
      "ions": 1001,
      "simil": 1002,
      "art": 1003,
      "population": 1004,
      "status": 1005,
      "oma": 1006,
      "hol": 1007,
      "meth": 1008,
      "atory": 1009,
      "tric": 1010,
      "they": 1011,
      "know": 1012,
      "ited": 1013,
      "may": 1014,
      "ple": 1015,
      "day": 1016,
      "oper": 1017,
      "similar": 1018,
      "prog": 1019,
      "termin": 1020,
      "ire": 1021,
      "sid": 1022,
      "his": 1023,
      "evaluate": 1024,
      "sex": 1025,
      "eng": 1026,
      "%).": 1027,
      "coh": 1028,
      "23": 1029,
      "well": 1030,
      "interven": 1031,
      "new": 1032,
      "ens": 1033,
      "current": 1034,
      "scre": 1035,
      "smo": 1036,
      "ste": 1037,
      "aged": 1038,
      "base": 1039,
      "ef": 1040,
      "decre": 1041,
      "lant": 1042,
      "indic": 1043,
      "second": 1044,
      "pendent": 1045,
      "son": 1046,
      "within": 1047,
      "complications": 1048,
      "mental": 1049,
      "improve": 1050,
      "six": 1051,
      "28": 1052,
      "et": 1053,
      "interval": 1054,
      "negative": 1055,
      "any": 1056,
      "dro": 1057,
      "io": 1058,
      "chr": 1059,
      "vascular": 1060,
      "part": 1061,
      "observed": 1062,
      "ze": 1063,
      "questionna": 1064,
      "nec": 1065,
      "conf": 1066,
      "uced": 1067,
      "oral": 1068,
      "adul": 1069,
      "ings": 1070,
      "ody": 1071,
      "acute": 1072,
      "scal": 1073,
      "model": 1074,
      "60": 1075,
      "intra": 1076,
      "activity": 1077,
      "centr": 1078,
      "exp": 1079,
      "scopic": 1080,
      "100": 1081,
      "ross": 1082,
      "body": 1083,
      "side": 1084,
      "early": 1085,
      "trial": 1086,
      "iat": 1087,
      "hypo": 1088,
      "place": 1089,
      "ml": 1090,
      "initi": 1091,
      "pat": 1092,
      "general": 1093,
      "mission": 1094,
      "relations": 1095,
      "acy": 1096,
      "ack": 1097,
      "%),": 1098,
      "21": 1099,
      "arch": 1100,
      "resid": 1101,
      "influ": 1102,
      "26": 1103,
      "life": 1104,
      "sensi": 1105,
      "aining": 1106,
      "27": 1107,
      "contr": 1108,
      "syn": 1109,
      "ization": 1110,
      "lap": 1111,
      "36": 1112,
      "addi": 1113,
      "tained": 1114,
      "find": 1115,
      "received": 1116,
      "practi": 1117,
      "ily": 1118,
      "formation": 1119,
      "relationship": 1120,
      "ps": 1121,
      "pu": 1122,
      "gas": 1123,
      "method": 1124,
      "participants": 1125,
      "ural": 1126,
      "ox": 1127,
      "breast": 1128,
      "characteristic": 1129,
      "pregn": 1130,
      "response": 1131,
      "cost": 1132,
      "ateral": 1133,
      "perform": 1134,
      "femal": 1135,
      "ben": 1136,
      "fail": 1137,
      "percent": 1138,
      "disorder": 1139,
      "need": 1140,
      "renal": 1141,
      "iv": 1142,
      "int": 1143,
      "dividual": 1144,
      "sever": 1145,
      "determin": 1146,
      "ening": 1147,
      "common": 1148,
      "baseline": 1149,
      "individual": 1150,
      "state": 1151,
      "retrospective": 1152,
      "increase": 1153,
      "conse": 1154,
      "ities": 1155,
      "preval": 1156,
      "mes": 1157,
      "incidence": 1158,
      "serum": 1159,
      "ni": 1160,
      "pressure": 1161,
      "35": 1162,
      "ins": 1163,
      "fy": 1164,
      "tumor": 1165,
      "five": 1166,
      "ages": 1167,
      "carcin": 1168,
      "physici": 1169,
      "du": 1170,
      "criter": 1171,
      "ected": 1172,
      "effects": 1173,
      "variate": 1174,
      "gy": 1175,
      "volu": 1176,
      "stage": 1177,
      "cohort": 1178,
      "lled": 1179,
      "self": 1180,
      "nal": 1181,
      "work": 1182,
      "ety": 1183,
      "survey": 1184,
      "ired": 1185,
      "lymp": 1186,
      "analyzed": 1187,
      "chem": 1188,
      "pan": 1189,
      "tivity": 1190,
      "death": 1191,
      "struc": 1192,
      "chronic": 1193,
      "ectomy": 1194,
      "oph": 1195,
      "uni": 1196,
      "xim": 1197,
      "vious": 1198,
      "tech": 1199,
      "sm": 1200,
      "ines": 1201,
      "value": 1202,
      "micro": 1203,
      "about": 1204,
      "tend": 1205,
      "cardio": 1206,
      "logic": 1207,
      "osis": 1208,
      "changes": 1209,
      "weeks": 1210,
      "ak": 1211,
      "dy": 1212,
      "factor": 1213,
      "lim": 1214,
      "dom": 1215,
      "histo": 1216,
      "29": 1217,
      "estim": 1218,
      "til": 1219,
      "aver": 1220,
      "ties": 1221,
      "try": 1222,
      "mit": 1223,
      "controls": 1224,
      "la": 1225,
      "previous": 1226,
      "jor": 1227,
      "values": 1228,
      "cording": 1229,
      "contin": 1230,
      "ound": 1231,
      "following": 1232,
      "major": 1233,
      "including": 1234,
      "detec": 1235,
      "physical": 1236,
      "independent": 1237,
      "injury": 1238,
      "ft": 1239,
      "gi": 1240,
      "cm": 1241,
      "coron": 1242,
      "itis": 1243,
      "conduc": 1244,
      "wa": 1245,
      "45": 1246,
      "single": 1247,
      "biop": 1248,
      "para": 1249,
      "case": 1250,
      "drug": 1251,
      "criteria": 1252,
      "volume": 1253,
      "ither": 1254,
      "80": 1255,
      "examined": 1256,
      "change": 1257,
      "greater": 1258,
      "assessment": 1259,
      "33": 1260,
      "bio": 1261,
      "ancy": 1262,
      "emo": 1263,
      "prevalence": 1264,
      "tial": 1265,
      "where": 1266,
      "scale": 1267,
      "mg": 1268,
      "statistically": 1269,
      "correlation": 1270,
      "transp": 1271,
      "tent": 1272,
      "standard": 1273,
      "heart": 1274,
      "app": 1275,
      "currence": 1276,
      "ress": 1277,
      "agement": 1278,
      "preoperative": 1279,
      "psycho": 1280,
      "according": 1281,
      "70": 1282,
      "search": 1283,
      "diabet": 1284,
      "diabetes": 1285,
      "characteristics": 1286,
      "spectively": 1287,
      "75": 1288,
      "asi": 1289,
      "rect": 1290,
      "traum": 1291,
      "han": 1292,
      "48": 1293,
      "ables": 1294,
      "presence": 1295,
      "infection": 1296,
      "scopy": 1297,
      "iatric": 1298,
      "31": 1299,
      "bir": 1300,
      "neuro": 1301,
      "immun": 1302,
      "stro": 1303,
      "poten": 1304,
      "ked": 1305,
      "obtained": 1306,
      "while": 1307,
      "questionnaire": 1308,
      "evid": 1309,
      "vere": 1310,
      "though": 1311,
      "fam": 1312,
      "confidence": 1313,
      "vir": 1314,
      "beha": 1315,
      "90": 1316,
      "ped": 1317,
      "condi": 1318,
      "atal": 1319,
      "prospective": 1320,
      "34": 1321,
      "assi": 1322,
      "ning": 1323,
      "behavi": 1324,
      "consecu": 1325,
      "consecutive": 1326,
      "hour": 1327,
      "hist": 1328,
      "management": 1329,
      "intervention": 1330,
      "national": 1331,
      "inten": 1332,
      "calcul": 1333,
      "oid": 1334,
      "occur": 1335,
      "likely": 1336,
      "coronary": 1337,
      "imaging": 1338,
      "deli": 1339,
      "program": 1340,
      "65": 1341,
      "birth": 1342,
      "information": 1343,
      "hr": 1344,
      "undergo": 1345,
      "sample": 1346,
      "conducted": 1347,
      "air": 1348,
      "%.": 1349,
      "sensitivity": 1350,
      "fract": 1351,
      "cept": 1352,
      "prote": 1353,
      "metast": 1354,
      "ists": 1355,
      "admission": 1356,
      "38": 1357,
      "paren": 1358,
      "odds": 1359,
      "invol": 1360,
      "thir": 1361,
      "severe": 1362,
      "37": 1363,
      "comb": 1364,
      "led": 1365,
      "carcinoma": 1366,
      "dose": 1367,
      "ons": 1368,
      "lev": 1369,
      "phy": 1370,
      "off": 1371,
      "elec": 1372,
      "depression": 1373,
      "grade": 1374,
      "cardiac": 1375,
      "could": 1376,
      "regard": 1377,
      "cs": 1378,
      "artery": 1379,
      "practice": 1380,
      "ism": 1381,
      "findings": 1382,
      "variables": 1383,
      "fication": 1384,
      "record": 1385,
      "minis": 1386,
      "mass": 1387,
      "classi": 1388,
      "ges": 1389,
      "dist": 1390,
      "32": 1391,
      "sk": 1392,
      "gest": 1393,
      "small": 1394,
      "size": 1395,
      "cap": 1396,
      "idity": 1397,
      "medic": 1398,
      "lam": 1399,
      "graf": 1400,
      "ner": 1401,
      "emer": 1402,
      "impact": 1403,
      "temp": 1404,
      "average": 1405,
      "aro": 1406,
      "stroke": 1407,
      "ultr": 1408,
      "loc": 1409,
      "ral": 1410,
      "ately": 1411,
      "cogn": 1412,
      "servic": 1413,
      "concentr": 1414,
      "adminis": 1415,
      "sequ": 1416,
      "evidence": 1417,
      "analyses": 1418,
      "pt": 1419,
      "obes": 1420,
      "screening": 1421,
      "kers": 1422,
      "poly": 1423,
      "measures": 1424,
      "diagnosed": 1425,
      "mode": 1426,
      "local": 1427,
      "performance": 1428,
      "39": 1429,
      "mographic": 1430,
      "educ": 1431,
      "resection": 1432,
      "<.": 1433,
      "either": 1434,
      "pur": 1435,
      "ultras": 1436,
      "ns": 1437,
      "respond": 1438,
      "diagnostic": 1439,
      "commun": 1440,
      "investigate": 1441,
      "older": 1442,
      "free": 1443,
      "young": 1444,
      "leng": 1445,
      "que": 1446,
      "meters": 1447,
      "length": 1448,
      "failure": 1449,
      "ateg": 1450,
      "social": 1451,
      "rest": 1452,
      "bal": 1453,
      "procedure": 1454,
      "person": 1455,
      "verse": 1456,
      "provid": 1457,
      "determined": 1458,
      "trac": 1459,
      "prof": 1460,
      "left": 1461,
      "monary": 1462,
      "examination": 1463,
      "identify": 1464,
      "compare": 1465,
      "history": 1466,
      "rectal": 1467,
      "healthy": 1468,
      "asis": 1469,
      "typ": 1470,
      "lesions": 1471,
      "fusion": 1472,
      "ched": 1473,
      "known": 1474,
      "clo": 1475,
      "abs": 1476,
      "laparo": 1477,
      "44": 1478,
      "reviewed": 1479,
      "defined": 1480,
      "aneous": 1481,
      "descri": 1482,
      "bu": 1483,
      "glo": 1484,
      "role": 1485,
      "such": 1486,
      "sible": 1487,
      "same": 1488,
      "smoking": 1489,
      "tension": 1490,
      "complete": 1491,
      "studied": 1492,
      "drome": 1493,
      "evaluation": 1494,
      "gene": 1495,
      "duration": 1496,
      "syndrome": 1497,
      "%;": 1498,
      "undergoing": 1499,
      "sue": 1500,
      "techni": 1501,
      "adjusted": 1502,
      "bil": 1503,
      "ice": 1504,
      "tical": 1505,
      "protein": 1506,
      "gender": 1507,
      "suc": 1508,
      "cd": 1509,
      "inary": 1510,
      "port": 1511,
      "import": 1512,
      "active": 1513,
      "collected": 1514,
      "cross": 1515,
      "consis": 1516,
      "adv": 1517,
      "influence": 1518,
      "46": 1519,
      "org": 1520,
      "ger": 1521,
      "liver": 1522,
      "abl": 1523,
      "predictive": 1524,
      "transplant": 1525,
      "logistic": 1526,
      "potential": 1527,
      "sug": 1528,
      "ev": 1529,
      "accur": 1530,
      "some": 1531,
      "nine": 1532,
      "fer": 1533,
      "demographic": 1534,
      "cc": 1535,
      "fac": 1536,
      "42": 1537,
      "abor": 1538,
      "multivariate": 1539,
      "being": 1540,
      "alco": 1541,
      "severity": 1542,
      "trauma": 1543,
      "male": 1544,
      "although": 1545,
      "mus": 1546,
      "mater": 1547,
      "arm": 1548,
      "recurrence": 1549,
      "tests": 1550,
      "cut": 1551,
      "duc": 1552,
      "parameters": 1553,
      "47": 1554,
      "week": 1555,
      "ator": 1556,
      "comm": 1557,
      "female": 1558,
      ");": 1559,
      "biopsy": 1560,
      "relative": 1561,
      "55": 1562,
      "students": 1563,
      "emp": 1564,
      "uary": 1565,
      "wo": 1566,
      "0001": 1567,
      "cells": 1568,
      "ished": 1569,
      "bed": 1570,
      "gl": 1571,
      "research": 1572,
      "loss": 1573,
      "cir": 1574,
      "obj": 1575,
      "proble": 1576,
      "training": 1577,
      "gency": 1578,
      "followed": 1579,
      "pd": 1580,
      "lung": 1581,
      "aor": 1582,
      "multiple": 1583,
      "old": 1584,
      "pose": 1585,
      "propor": 1586,
      "clinic": 1587,
      "bmi": 1588,
      "randomized": 1589,
      "scan": 1590,
      "prior": 1591,
      "flu": 1592,
      "benef": 1593,
      "pair": 1594,
      "decreased": 1595,
      "ventric": 1596,
      "pregnancy": 1597,
      "bec": 1598,
      "moder": 1599,
      "examine": 1600,
      "ck": 1601,
      "tered": 1602,
      "tomo": 1603,
      "through": 1604,
      "abnormal": 1605,
      "calculated": 1606,
      "pattern": 1607,
      "eding": 1608,
      "thyro": 1609,
      "67": 1610,
      "success": 1611,
      "sf": 1612,
      "ax": 1613,
      "refer": 1614,
      "mri": 1615,
      "ret": 1616,
      "better": 1617,
      "avail": 1618,
      "remain": 1619,
      "large": 1620,
      "hours": 1621,
      "ster": 1622,
      "sati": 1623,
      "prostate": 1624,
      "angio": 1625,
      "cogni": 1626,
      "recorded": 1627,
      "49": 1628,
      "nur": 1629,
      "insti": 1630,
      "bone": 1631,
      "thor": 1632,
      "ature": 1633,
      "cyto": 1634,
      "ically": 1635,
      "interview": 1636,
      "procedures": 1637,
      "correlated": 1638,
      "85": 1639,
      "cons": 1640,
      "initial": 1641,
      "sal": 1642,
      "investigated": 1643,
      "area": 1644,
      "frequency": 1645,
      "sd": 1646,
      "chool": 1647,
      "physicians": 1648,
      "completed": 1649,
      "emergency": 1650,
      "least": 1651,
      "functional": 1652,
      "itation": 1653,
      "bidity": 1654,
      "tissue": 1655,
      "would": 1656,
      "sus": 1657,
      "41": 1658,
      "mr": 1659,
      "adol": 1660,
      "inflam": 1661,
      "continu": 1662,
      "mem": 1663,
      "family": 1664,
      "comparis": 1665,
      "tration": 1666,
      "developed": 1667,
      "pancre": 1668,
      "throm": 1669,
      "progno": 1670,
      "adults": 1671,
      "alcohol": 1672,
      "kg": 1673,
      "bar": 1674,
      "demon": 1675,
      "hum": 1676,
      "demonstr": 1677,
      "myo": 1678,
      "43": 1679,
      "expl": 1680,
      "organ": 1681,
      "asing": 1682,
      "88": 1683,
      "frequent": 1684,
      "bp": 1685,
      "take": 1686,
      "ture": 1687,
      "fur": 1688,
      "pulmonary": 1689,
      "dl": 1690,
      "omic": 1691,
      "hood": 1692,
      "xi": 1693,
      "saf": 1694,
      "eric": 1695,
      "samples": 1696,
      "bility": 1697,
      "models": 1698,
      "sin": 1699,
      "modi": 1700,
      "000": 1701,
      "approach": 1702,
      "conside": 1703,
      "whereas": 1704,
      "considered": 1705,
      "cus": 1706,
      "school": 1707,
      "seven": 1708,
      "56": 1709,
      "eight": 1710,
      "affect": 1711,
      "reduction": 1712,
      "surge": 1713,
      "hund": 1714,
      "placement": 1715,
      "occurred": 1716,
      "lymph": 1717,
      "hundred": 1718,
      "enro": 1719,
      "eno": 1720,
      "adoles": 1721,
      "further": 1722,
      "sit": 1723,
      "thic": 1724,
      "poor": 1725,
      "addition": 1726,
      "64": 1727,
      "abdom": 1728,
      "design": 1729,
      "bro": 1730,
      "beca": 1731,
      "mid": 1732,
      "recomm": 1733,
      "recommend": 1734,
      "flow": 1735,
      "adi": 1736,
      "veal": 1737,
      "due": 1738,
      "rh": 1739,
      "dys": 1740,
      "exer": 1741,
      "individuals": 1742,
      "pho": 1743,
      "72": 1744,
      "jan": 1745,
      "region": 1746,
      "purpose": 1747,
      "69": 1748,
      "mitted": 1749,
      "recent": 1750,
      "categ": 1751,
      "esthe": 1752,
      "detected": 1753,
      "ot": 1754,
      "grad": 1755,
      "infants": 1756,
      "depart": 1757,
      "important": 1758,
      "dischar": 1759,
      "uter": 1760,
      "reveal": 1761,
      "reduced": 1762,
      "ip": 1763,
      "cour": 1764,
      "clusion": 1765,
      "57": 1766,
      "99": 1767,
      "clear": 1768,
      "her": 1769,
      "contrast": 1770,
      "january": 1771,
      "expo": 1772,
      "times": 1773,
      "possible": 1774,
      "them": 1775,
      "hiv": 1776,
      "center": 1777,
      "lit": 1778,
      "clu": 1779,
      "regis": 1780,
      "improvement": 1781,
      "hib": 1782,
      "53": 1783,
      "opa": 1784,
      "sia": 1785,
      "sle": 1786,
      "ventricular": 1787,
      "66": 1788,
      "58": 1789,
      "als": 1790,
      "hospitals": 1791,
      "enced": 1792,
      "actic": 1793,
      "achi": 1794,
      "cision": 1795,
      "idel": 1796,
      "open": 1797,
      "malign": 1798,
      "specificity": 1799,
      "59": 1800,
      "grow": 1801,
      "head": 1802,
      "improved": 1803,
      "echan": 1804,
      "guidel": 1805,
      "delivery": 1806,
      "68": 1807,
      "venous": 1808,
      "stress": 1809,
      "ultrasound": 1810,
      "chemo": 1811,
      "laparoscopic": 1812,
      "having": 1813,
      "52": 1814,
      "02": 1815,
      "urinary": 1816,
      "stay": 1817,
      "mu": 1818,
      "development": 1819,
      "lin": 1820,
      "point": 1821,
      "vit": 1822,
      "univers": 1823,
      "pub": 1824,
      "kne": 1825,
      "available": 1826,
      "89": 1827,
      "pass": 1828,
      "esoph": 1829,
      "cause": 1830,
      "depres": 1831,
      "matched": 1832,
      "abdominal": 1833,
      "tor": 1834,
      "73": 1835,
      "ople": 1836,
      "plasma": 1837,
      "ken": 1838,
      "exercis": 1839,
      "vical": 1840,
      "adder": 1841,
      "regarding": 1842,
      "63": 1843,
      "hypothe": 1844,
      "cies": 1845,
      "don": 1846,
      "terior": 1847,
      "objective": 1848,
      "62": 1849,
      "direct": 1850,
      "ono": 1851,
      "erence": 1852,
      "aortic": 1853,
      "rout": 1854,
      "asp": 1855,
      "read": 1856,
      "equ": 1857,
      "erior": 1858,
      "ection": 1859,
      "51": 1860,
      "87": 1861,
      "ulin": 1862,
      "visual": 1863,
      "myocardi": 1864,
      "ology": 1865,
      "testing": 1866,
      "cru": 1867,
      "54": 1868,
      "enty": 1869,
      "inte": 1870,
      "bladder": 1871,
      "ga": 1872,
      "tribut": 1873,
      "cervical": 1874,
      "oste": 1875,
      "report": 1876,
      "mag": 1877,
      "measurements": 1878,
      "achie": 1879,
      "back": 1880,
      "reli": 1881,
      "itor": 1882,
      "twenty": 1883,
      "education": 1884,
      "labor": 1885,
      "events": 1886,
      "ker": 1887,
      "bor": 1888,
      "controlled": 1889,
      "cords": 1890,
      "ticular": 1891,
      "disorders": 1892,
      "hepati": 1893,
      "statistical": 1894,
      "right": 1895,
      "selected": 1896,
      "adult": 1897,
      "78": 1898,
      "cognitive": 1899,
      "retrospectively": 1900,
      "required": 1901,
      "support": 1902,
      "short": 1903,
      "experience": 1904,
      "lead": 1905,
      "prescri": 1906,
      "sectional": 1907,
      "land": 1908,
      "records": 1909,
      "amp": 1910,
      "datab": 1911,
      "implant": 1912,
      "wn": 1913,
      "79": 1914,
      "plasty": 1915,
      "exposure": 1916,
      "tumors": 1917,
      "61": 1918,
      "increasing": 1919,
      "ards": 1920,
      "cp": 1921,
      "ult": 1922,
      "atin": 1923,
      "routine": 1924,
      "secondary": 1925,
      "because": 1926,
      "should": 1927,
      "amin": 1928,
      "position": 1929,
      "morbidity": 1930,
      "conditions": 1931,
      "community": 1932,
      "zation": 1933,
      "revealed": 1934,
      "unit": 1935,
      "expression": 1936,
      "amic": 1937,
      "rem": 1938,
      "suff": 1939,
      "vement": 1940,
      "cv": 1941,
      "seen": 1942,
      "uk": 1943,
      "moderate": 1944,
      "types": 1945,
      "tribu": 1946,
      "additional": 1947,
      "onset": 1948,
      "subsequ": 1949,
      "subsequent": 1950,
      "unt": 1951,
      "repair": 1952,
      "stimul": 1953,
      "consu": 1954,
      "abil": 1955,
      "tolic": 1956,
      "people": 1957,
      "jun": 1958,
      "vation": 1959,
      "isol": 1960,
      "effective": 1961,
      "tect": 1962,
      "86": 1963,
      "then": 1964,
      "thrombo": 1965,
      "bur": 1966,
      "struction": 1967,
      "institu": 1968,
      "rs": 1969,
      "presented": 1970,
      "process": 1971,
      "71": 1972,
      "74": 1973,
      "comparison": 1974,
      "repe": 1975,
      "often": 1976,
      "cum": 1977,
      "mechan": 1978,
      "ences": 1979,
      "82": 1980,
      "sw": 1981,
      "mber": 1982,
      "few": 1983,
      "76": 1984,
      "quanti": 1985,
      "vide": 1986,
      "utes": 1987,
      "glu": 1988,
      "operation": 1989,
      "myocardial": 1990,
      "add": 1991,
      "iii": 1992,
      "iratory": 1993,
      "icient": 1994,
      "special": 1995,
      "veness": 1996,
      "ised": 1997,
      "confir": 1998,
      "sleep": 1999,
      "bral": 2000,
      "graft": 2001,
      "84": 2002,
      "py": 2003,
      "sol": 2004,
      "hypertension": 2005,
      "pel": 2006,
      "exercise": 2007,
      "83": 2008,
      "thyroid": 2009,
      "tain": 2010,
      "amo": 2011,
      "mented": 2012,
      "colo": 2013,
      "americ": 2014,
      "maxim": 2015,
      "late": 2016,
      "las": 2017,
      "ran": 2018,
      "minim": 2019,
      "enrolled": 2020,
      "residents": 2021,
      "necess": 2022,
      "knee": 2023,
      "university": 2024,
      "03": 2025,
      "many": 2026,
      "way": 2027,
      "ischem": 2028,
      "econ": 2029,
      "ori": 2030,
      "metry": 2031,
      "cardiovascular": 2032,
      "node": 2033,
      "77": 2034,
      "lear": 2035,
      "abol": 2036,
      "immuno": 2037,
      "guidelines": 2038,
      "anxi": 2039,
      "wel": 2040,
      "cere": 2041,
      "plan": 2042,
      "human": 2043,
      "technique": 2044,
      "department": 2045,
      "brain": 2046,
      "81": 2047,
      "divided": 2048,
      "prob": 2049,
      "estimated": 2050,
      "services": 2051,
      "demonstrated": 2052,
      "mentation": 2053,
      "growth": 2054,
      "asth": 2055,
      "uted": 2056,
      "elev": 2057,
      "jo": 2058,
      "ensity": 2059,
      "public": 2060,
      "chemotherapy": 2061,
      "class": 2062,
      "hor": 2063,
      "sl": 2064,
      "gluco": 2065,
      "receiving": 2066,
      "maternal": 2067,
      "sexual": 2068,
      "pediatric": 2069,
      "infar": 2070,
      "pv": 2071,
      "taken": 2072,
      "eth": 2073,
      "variable": 2074,
      "establ": 2075,
      "tar": 2076,
      "96": 2077,
      "accuracy": 2078,
      "ints": 2079,
      "home": 2080,
      "socio": 2081,
      "ulation": 2082,
      "tested": 2083,
      "let": 2084,
      "tren": 2085,
      "proportion": 2086,
      "eral": 2087,
      "plac": 2088,
      "alone": 2089,
      "daily": 2090,
      "ecti": 2091,
      "vo": 2092,
      "across": 2093,
      "knowled": 2094,
      "elder": 2095,
      "uses": 2096,
      "acid": 2097,
      "hel": 2098,
      "effic": 2099,
      "ney": 2100,
      "invasi": 2101,
      "gastro": 2102,
      "predicted": 2103,
      "specim": 2104,
      "agree": 2105,
      "anxiety": 2106,
      "gastric": 2107,
      "mod": 2108,
      "eld": 2109,
      "teen": 2110,
      "anterior": 2111,
      "metabol": 2112,
      "methods": 2113,
      "cathe": 2114,
      "resist": 2115,
      "eu": 2116,
      "adverse": 2117,
      "dyn": 2118,
      "aimed": 2119,
      "theli": 2120,
      "percentage": 2121,
      "carri": 2122,
      "bs": 2123,
      "nic": 2124,
      "minutes": 2125,
      "kid": 2126,
      "induced": 2127,
      "nu": 2128,
      "tics": 2129,
      "bers": 2130,
      "catheter": 2131,
      "invasive": 2132,
      "lect": 2133,
      "lat": 2134,
      "neon": 2135,
      "hg": 2136,
      "remo": 2137,
      "atures": 2138,
      "top": 2139,
      "04": 2140,
      "knowledge": 2141,
      "associations": 2142,
      "conven": 2143,
      "pne": 2144,
      "concentrations": 2145,
      "vision": 2146,
      "attend": 2147,
      "problems": 2148,
      "discharge": 2149,
      "efficacy": 2150,
      "fif": 2151,
      "pri": 2152,
      "ey": 2153,
      "hal": 2154,
      "oxy": 2155,
      "oti": 2156,
      "tribution": 2157,
      "den": 2158,
      "detect": 2159,
      "course": 2160,
      "categor": 2161,
      "targe": 2162,
      "face": 2163,
      "logists": 2164,
      "setting": 2165,
      "database": 2166,
      "dece": 2167,
      "elderly": 2168,
      "radiation": 2169,
      "version": 2170,
      "epis": 2171,
      "hand": 2172,
      "differ": 2173,
      "sfaction": 2174,
      "satisfaction": 2175,
      "vac": 2176,
      "still": 2177,
      "decrease": 2178,
      "glucose": 2179,
      "uce": 2180,
      "94": 2181,
      "males": 2182,
      "combined": 2183,
      "92": 2184,
      "ators": 2185,
      "cyst": 2186,
      "],": 2187,
      "anced": 2188,
      "dial": 2189,
      "physician": 2190,
      "diet": 2191,
      "sugges": 2192,
      "fat": 2193,
      "strong": 2194,
      "good": 2195,
      "91": 2196,
      "obesity": 2197,
      "mia": 2198,
      "tim": 2199,
      "metric": 2200,
      "matory": 2201,
      "asthma": 2202,
      "bul": 2203,
      "adolesc": 2204,
      "93": 2205,
      "prospectively": 2206,
      "made": 2207,
      "(-": 2208,
      "md": 2209,
      "arterial": 2210,
      "predictors": 2211,
      "economic": 2212,
      "posed": 2213,
      "wal": 2214,
      "loy": 2215,
      "vag": 2216,
      "linear": 2217,
      "simul": 2218,
      "plate": 2219,
      "how": 2220,
      "fractures": 2221,
      "detection": 2222,
      "females": 2223,
      "reh": 2224,
      "lateral": 2225,
      "classified": 2226,
      "transplantation": 2227,
      "prognostic": 2228,
      "pi": 2229,
      "concer": 2230,
      "proto": 2231,
      "bol": 2232,
      "mol": 2233,
      "bypass": 2234,
      "thirty": 2235,
      "ng": 2236,
      "none": 2237,
      "explo": 2238,
      "fracture": 2239,
      "osteo": 2240,
      "ysis": 2241,
      "dynamic": 2242,
      "site": 2243,
      "obese": 2244,
      "rang": 2245,
      "delay": 2246,
      "ler": 2247,
      "haz": 2248,
      "features": 2249,
      "access": 2250,
      "muscle": 2251,
      "diabe": 2252,
      "mer": 2253,
      "hd": 2254,
      "neck": 2255,
      "97": 2256,
      "given": 2257,
      "echo": 2258,
      "pathological": 2259,
      "ered": 2260,
      "rt": 2261,
      "gree": 2262,
      "tox": 2263,
      "2000": 2264,
      "tle": 2265,
      "mour": 2266,
      "inhib": 2267,
      "atten": 2268,
      "ental": 2269,
      "liter": 2270,
      "lip": 2271,
      "arthro": 2272,
      "inflammatory": 2273,
      "98": 2274,
      "pen": 2275,
      "wide": 2276,
      "computed": 2277,
      "tumour": 2278,
      "cler": 2279,
      "longer": 2280,
      "areas": 2281,
      "location": 2282,
      "ires": 2283,
      "bin": 2284,
      "aring": 2285,
      "agreement": 2286,
      "2005": 2287,
      "spinal": 2288,
      "item": 2289,
      "docu": 2290,
      "respiratory": 2291,
      "necessary": 2292,
      "anesthe": 2293,
      "chi": 2294,
      "2010": 2295,
      "admitted": 2296,
      "tomography": 2297,
      "infarction": 2298,
      "trials": 2299,
      "pelvic": 2300,
      "seg": 2301,
      "thr": 2302,
      "neo": 2303,
      "degree": 2304,
      "stric": 2305,
      "colorectal": 2306,
      "ats": 2307,
      "2008": 2308,
      "lan": 2309,
      "points": 2310,
      "percei": 2311,
      "result": 2312,
      "ned": 2313,
      "my": 2314,
      "lum": 2315,
      "persis": 2316,
      "food": 2317,
      "insulin": 2318,
      "squ": 2319,
      "december": 2320,
      "count": 2321,
      "teach": 2322,
      "perit": 2323,
      "cles": 2324,
      "rad": 2325,
      "intr": 2326,
      "analysed": 2327,
      "advanced": 2328,
      "hold": 2329,
      "concentration": 2330,
      "recru": 2331,
      "ise": 2332,
      "produc": 2333,
      "omas": 2334,
      "dysfunction": 2335,
      "sc": 2336,
      "exclud": 2337,
      "defin": 2338,
      "affected": 2339,
      "pet": 2340,
      "posterior": 2341,
      "younger": 2342,
      "ological": 2343,
      "practic": 2344,
      "ward": 2345,
      "antibio": 2346,
      "iciency": 2347,
      "sch": 2348,
      "phase": 2349,
      "successful": 2350,
      "sions": 2351,
      "costs": 2352,
      "again": 2353,
      "american": 2354,
      "several": 2355,
      "ring": 2356,
      "lling": 2357,
      "skin": 2358,
      "uth": 2359,
      "ton": 2360,
      "whom": 2361,
      "images": 2362,
      "cutaneous": 2363,
      "urb": 2364,
      "2007": 2365,
      "psych": 2366,
      "experienced": 2367,
      "arti": 2368,
      "ectiveness": 2369,
      "metastases": 2370,
      "effectiveness": 2371,
      "medicine": 2372,
      "nutri": 2373,
      "adequ": 2374,
      "subst": 2375,
      "uti": 2376,
      "condition": 2377,
      "surgeons": 2378,
      "recon": 2379,
      "measurement": 2380,
      "drugs": 2381,
      "valid": 2382,
      "last": 2383,
      "valve": 2384,
      "fix": 2385,
      "clinically": 2386,
      "ason": 2387,
      "density": 2388,
      "tero": 2389,
      "diseases": 2390,
      "bleeding": 2391,
      "asy": 2392,
      "compon": 2393,
      "2009": 2394,
      "mption": 2395,
      "reco": 2396,
      "play": 2397,
      "employ": 2398,
      "classification": 2399,
      "adolescents": 2400,
      "ib": 2401,
      "mother": 2402,
      "personal": 2403,
      "ld": 2404,
      "injuries": 2405,
      "pal": 2406,
      "euro": 2407,
      "beta": 2408,
      "lex": 2409,
      "monitor": 2410,
      "reports": 2411,
      "tas": 2412,
      "fibr": 2413,
      "third": 2414,
      "ont": 2415,
      "iting": 2416,
      "administered": 2417,
      "useful": 2418,
      "auto": 2419,
      "ium": 2420,
      "intest": 2421,
      "conventional": 2422,
      "upper": 2423,
      "remained": 2424,
      "service": 2425,
      "questions": 2426,
      "2006": 2427,
      "appropri": 2428,
      "preven": 2429,
      "sten": 2430,
      "load": 2431,
      "tract": 2432,
      "examin": 2433,
      "lympho": 2434,
      "gly": 2435,
      "lied": 2436,
      "predictor": 2437,
      "diabetic": 2438,
      "parents": 2439,
      "sional": 2440,
      "central": 2441,
      "series": 2442,
      "endoscopic": 2443,
      "confirmed": 2444,
      "fic": 2445,
      "hormon": 2446,
      "respondents": 2447,
      "limited": 2448,
      "reduce": 2449,
      "susp": 2450,
      "medication": 2451,
      "perceived": 2452,
      "hs": 2453,
      "lection": 2454,
      "decision": 2455,
      "kidney": 2456,
      "appl": 2457,
      "administration": 2458,
      "hemo": 2459,
      "randomly": 2460,
      "previously": 2461,
      "va": 2462,
      "ageal": 2463,
      "forty": 2464,
      "specimens": 2465,
      "tensive": 2466,
      "stent": 2467,
      "esophageal": 2468,
      "white": 2469,
      "calci": 2470,
      "emia": 2471,
      "recurrent": 2472,
      "presenting": 2473,
      "eg": 2474,
      "percep": 2475,
      "thritis": 2476,
      "mediate": 2477,
      "asal": 2478,
      "comor": 2479,
      "safety": 2480,
      "ied": 2481,
      "rating": 2482,
      "tries": 2483,
      "rr": 2484,
      "relation": 2485,
      "exist": 2486,
      "diffic": 2487,
      "fetal": 2488,
      "thelial": 2489,
      "physi": 2490,
      "blind": 2491,
      "cox": 2492,
      "motor": 2493,
      "observ": 2494,
      "progression": 2495,
      "later": 2496,
      "fluid": 2497,
      "mild": 2498,
      "profes": 2499,
      "pha": 2500,
      "atr": 2501,
      "hb": 2502,
      "psychological": 2503,
      "laboratory": 2504,
      "fs": 2505,
      "involvement": 2506,
      "standar": 2507,
      "involved": 2508,
      "2004": 2509,
      "pathology": 2510,
      "kness": 2511,
      "arthritis": 2512,
      "terms": 2513,
      "choles": 2514,
      "intestinal": 2515,
      "tured": 2516,
      "indicated": 2517,
      "diameter": 2518,
      "shown": 2519,
      "netic": 2520,
      "significance": 2521,
      "infections": 2522,
      "ergy": 2523,
      "internal": 2524,
      "intensive": 2525,
      "states": 2526,
      "benefit": 2527,
      "auth": 2528,
      "patterns": 2529,
      "vered": 2530,
      "electro": 2531,
      "zy": 2532,
      "placebo": 2533,
      "nerve": 2534,
      "authors": 2535,
      "tool": 2536,
      "qol": 2537,
      "pathy": 2538,
      "benign": 2539,
      "rup": 2540,
      "peak": 2541,
      "ratios": 2542,
      "dimen": 2543,
      "impair": 2544,
      "frequently": 2545,
      "ian": 2546,
      "drin": 2547,
      "illary": 2548,
      "complication": 2549,
      "chest": 2550,
      "lesion": 2551,
      "vaginal": 2552,
      "relev": 2553,
      "behaviour": 2554,
      "ution": 2555,
      "provided": 2556,
      "referral": 2557,
      "igi": 2558,
      "curve": 2559,
      "weigh": 2560,
      "elevated": 2561,
      "marg": 2562,
      "ually": 2563,
      "=.": 2564,
      "intraoperative": 2565,
      "bacter": 2566,
      "intake": 2567,
      "vice": 2568,
      "thorac": 2569,
      "mas": 2570,
      "extent": 2571,
      "distribution": 2572,
      "various": 2573,
      "fil": 2574,
      "ry": 2575,
      "bowel": 2576,
      "desp": 2577,
      "regional": 2578,
      "actions": 2579,
      "sity": 2580,
      "despite": 2581,
      "appropriate": 2582,
      "psa": 2583,
      "separ": 2584,
      "highest": 2585,
      "isted": 2586,
      "consumption": 2587,
      "embol": 2588,
      "histological": 2589,
      "ged": 2590,
      "heren": 2591,
      "terol": 2592,
      "comparing": 2593,
      "isolated": 2594,
      "peritone": 2595,
      "dem": 2596,
      "particular": 2597,
      "magnetic": 2598,
      "cys": 2599,
      "responses": 2600,
      "depend": 2601,
      "genic": 2602,
      "prevent": 2603,
      "dysp": 2604,
      "recept": 2605,
      "wer": 2606,
      "tur": 2607,
      "depressive": 2608,
      "perfusion": 2609,
      "malignant": 2610,
      "mut": 2611,
      "correct": 2612,
      "enhan": 2613,
      "continence": 2614,
      "applied": 2615,
      "gestational": 2616,
      "rhe": 2617,
      "literature": 2618,
      "illness": 2619,
      "tended": 2620,
      "otid": 2621,
      "even": 2622,
      "2001": 2623,
      "ones": 2624,
      "joint": 2625,
      "fast": 2626,
      "intensity": 2627,
      "cerebral": 2628,
      "living": 2629,
      "2011": 2630,
      "thres": 2631,
      "dm": 2632,
      "questionnaires": 2633,
      "sider": 2634,
      "aryn": 2635,
      "cad": 2636,
      "ctomy": 2637,
      "vities": 2638,
      "chemical": 2639,
      "neph": 2640,
      "therapeu": 2641,
      "fin": 2642,
      "nod": 2643,
      "orig": 2644,
      "occ": 2645,
      "stable": 2646,
      "ught": 2647,
      "fifty": 2648,
      "ove": 2649,
      "nia": 2650,
      "stenosis": 2651,
      "adjustment": 2652,
      "mix": 2653,
      "atrial": 2654,
      "bac": 2655,
      "mac": 2656,
      "enter": 2657,
      "2002": 2658,
      "achieved": 2659,
      "ids": 2660,
      "thoracic": 2661,
      "consistent": 2662,
      "excluded": 2663,
      "az": 2664,
      "doct": 2665,
      "sites": 2666,
      "bc": 2667,
      "terti": 2668,
      "utili": 2669,
      "receive": 2670,
      "carried": 2671,
      "lt": 2672,
      "radiotherapy": 2673,
      "little": 2674,
      "aden": 2675,
      "2003": 2676,
      "practices": 2677,
      "rural": 2678,
      "too": 2679,
      "dou": 2680,
      "sys": 2681,
      "adjuv": 2682,
      "disability": 2683,
      "maximum": 2684,
      "alpha": 2685,
      "distal": 2686,
      "therefore": 2687,
      "visits": 2688,
      "therapeutic": 2689,
      "ann": 2690,
      "markers": 2691,
      "tility": 2692,
      "recruited": 2693,
      "urban": 2694,
      "final": 2695,
      "nit": 2696,
      "pancreatic": 2697,
      "oxygen": 2698,
      "stren": 2699,
      "wall": 2700,
      "atti": 2701,
      "t1": 2702,
      "dies": 2703,
      "nodes": 2704,
      "bilateral": 2705,
      "ischemic": 2706,
      "ters": 2707,
      "consider": 2708,
      "adjuvant": 2709,
      "err": 2710,
      "ulcer": 2711,
      "interventions": 2712,
      "instr": 2713,
      "will": 2714,
      "noted": 2715,
      "absence": 2716,
      "radical": 2717,
      "metabolic": 2718,
      "ethnic": 2719,
      "lv": 2720,
      "viron": 2721,
      "environ": 2722,
      "reduc": 2723,
      "cholesterol": 2724,
      "consult": 2725,
      "pc": 2726,
      "timal": 2727,
      "aspir": 2728,
      "real": 2729,
      "rection": 2730,
      "ina": 2731,
      "replacement": 2732,
      "assign": 2733,
      "countries": 2734,
      "rho": 2735,
      "established": 2736,
      "systolic": 2737,
      "kap": 2738,
      "epi": 2739,
      "rectomy": 2740,
      "pap": 2741,
      "sour": 2742,
      "streng": 2743,
      "protocol": 2744,
      "coll": 2745,
      "born": 2746,
      "ling": 2747,
      "gh": 2748,
      "smokers": 2749,
      "referred": 2750,
      "certain": 2751,
      "ressive": 2752,
      "against": 2753,
      "units": 2754,
      "tub": 2755,
      "combination": 2756,
      "rot": 2757,
      "reson": 2758,
      "transfer": 2759,
      "fibro": 2760,
      "altern": 2761,
      "genetic": 2762,
      "t2": 2763,
      "gue": 2764,
      "help": 2765,
      "ption": 2766,
      "colon": 2767,
      "rap": 2768,
      "radiograph": 2769,
      "injection": 2770,
      "leg": 2771,
      "dop": 2772,
      "strati": 2773,
      "resonance": 2774,
      "sies": 2775,
      "monitoring": 2776,
      "carotid": 2777,
      "lux": 2778,
      "provide": 2779,
      "ore": 2780,
      "ext": 2781,
      "pathologic": 2782,
      "mig": 2783,
      "teaching": 2784,
      "fl": 2785,
      "anat": 2786,
      "spe": 2787,
      "dissection": 2788,
      "vitamin": 2789,
      "pac": 2790,
      "som": 2791,
      "2012": 2792,
      "austr": 2793,
      "aneur": 2794,
      "deaths": 2795,
      "thickness": 2796,
      "recovery": 2797,
      "hepatic": 2798,
      "ancies": 2799,
      "ili": 2800,
      "incid": 2801,
      "femoral": 2802,
      "shor": 2803,
      "matter": 2804,
      "height": 2805,
      "hydro": 2806,
      "behavior": 2807,
      "attemp": 2808,
      "remains": 2809,
      "modified": 2810,
      "independently": 2811,
      "strength": 2812,
      "aneurys": 2813,
      "ino": 2814,
      "tru": 2815,
      "pyl": 2816,
      "resistance": 2817,
      "degre": 2818,
      "degrees": 2819,
      "genes": 2820,
      "bodies": 2821,
      "icu": 2822,
      "coeff": 2823,
      "inser": 2824,
      "defini": 2825,
      "transfusion": 2826,
      "best": 2827,
      "echocardio": 2828,
      "died": 2829,
      "ains": 2830,
      "publ": 2831,
      "psychiatric": 2832,
      "differenti": 2833,
      "institution": 2834,
      "neonatal": 2835,
      "step": 2836,
      "allow": 2837,
      "usal": 2838,
      "dam": 2839,
      "symptomatic": 2840,
      "techniques": 2841,
      "pros": 2842,
      "presentation": 2843,
      "reach": 2844,
      "standardi": 2845,
      "fa": 2846,
      "guid": 2847,
      "ana": 2848,
      "ders": 2849,
      "ventil": 2850,
      "duction": 2851,
      "tradi": 2852,
      "see": 2853,
      "002": 2854,
      "hypothesis": 2855,
      "mation": 2856,
      "aims": 2857,
      "metastasis": 2858,
      "scans": 2859,
      "prophy": 2860,
      "cipi": 2861,
      "complex": 2862,
      "hazard": 2863,
      "event": 2864,
      "reporting": 2865,
      "urine": 2866,
      "univariate": 2867,
      "retur": 2868,
      "international": 2869,
      "majority": 2870,
      "toxic": 2871,
      "income": 2872,
      "discus": 2873,
      "systemic": 2874,
      "asion": 2875,
      "suggest": 2876,
      "tures": 2877,
      "ovari": 2878,
      "virus": 2879,
      "contribut": 2880,
      "herence": 2881,
      "enhanced": 2882,
      "preterm": 2883,
      "trend": 2884,
      "asked": 2885,
      "ills": 2886,
      "published": 2887,
      "priv": 2888,
      "imple": 2889,
      "users": 2890,
      "approxim": 2891,
      "tn": 2892,
      "block": 2893,
      "impairment": 2894,
      "activities": 2895,
      "computer": 2896,
      "polic": 2897,
      "centers": 2898,
      "austral": 2899,
      "idi": 2900,
      "dependent": 2901,
      "operating": 2902,
      "pneum": 2903,
      "max": 2904,
      "endome": 2905,
      "tail": 2906,
      "screen": 2907,
      "electr": 2908,
      "tele": 2909,
      "expected": 2910,
      "united": 2911,
      "half": 2912,
      "rehabil": 2913,
      "ae": 2914,
      "deri": 2915,
      "lying": 2916,
      "estimate": 2917,
      "angiography": 2918,
      "hemor": 2919,
      "continuous": 2920,
      "prevention": 2921,
      "staff": 2922,
      "variation": 2923,
      "city": 2924,
      "ference": 2925,
      "udes": 2926,
      "peritoneal": 2927,
      "itud": 2928,
      "consisted": 2929,
      "practition": 2930,
      "fav": 2931,
      "angle": 2932,
      "morph": 2933,
      "longitud": 2934,
      "dialysis": 2935,
      "mam": 2936,
      "problem": 2937,
      "recipi": 2938,
      "reference": 2939,
      "observational": 2940,
      "biopsies": 2941,
      "receptor": 2942,
      "incontinence": 2943,
      "require": 2944,
      "suggested": 2945,
      "comparable": 2946,
      "reflux": 2947,
      "acade": 2948,
      "episod": 2949,
      "kin": 2950,
      "ortho": 2951,
      "full": 2952,
      "marker": 2953,
      "safe": 2954,
      "nurses": 2955,
      "target": 2956,
      "since": 2957,
      "anim": 2958,
      "agg": 2959,
      "tertiary": 2960,
      "standardized": 2961,
      "tt": 2962,
      "muco": 2963,
      "vein": 2964,
      "proxim": 2965,
      "reconstruction": 2966,
      "simp": 2967,
      "relevant": 2968,
      "might": 2969,
      "minor": 2970,
      "sought": 2971,
      "europe": 2972,
      "remaining": 2973,
      "documented": 2974,
      "done": 2975,
      "los": 2976,
      "anas": 2977,
      "wound": 2978,
      "sevent": 2979,
      "rehabilitation": 2980,
      "adequate": 2981,
      "leuk": 2982,
      "super": 2983,
      "extern": 2984,
      "nursing": 2985,
      "assigned": 2986,
      "every": 2987,
      "beli": 2988,
      "interest": 2989,
      "antigen": 2990,
      "aa": 2991,
      "cancers": 2992,
      "strate": 2993,
      "feeding": 2994,
      "phosp": 2995,
      "ential": 2996,
      "transi": 2997,
      "antibodies": 2998,
      "ways": 2999,
      "sixty": 3000,
      "partial": 3001,
      "elective": 3002,
      "eigh": 3003,
      "above": 3004,
      "sto": 3005,
      "dg": 3006,
      "geno": 3007,
      "(>": 3008,
      "via": 3009,
      "recommended": 3010,
      "bron": 3011,
      "hormone": 3012,
      "fit": 3013,
      "anastomo": 3014,
      "rats": 3015,
      "1999": 3016,
      "hemorrh": 3017,
      "periph": 3018,
      "isms": 3019,
      "house": 3020,
      "ides": 3021,
      "arean": 3022,
      "circum": 3023,
      "childhood": 3024,
      "mothers": 3025,
      "onia": 3026,
      "visit": 3027,
      "outpatient": 3028,
      "adjusting": 3029,
      "stimulation": 3030,
      "gs": 3031,
      "rit": 3032,
      "onco": 3033,
      "sent": 3034,
      "pharm": 3035,
      "spine": 3036,
      "larger": 3037,
      "06": 3038,
      "unknown": 3039,
      "eligi": 3040,
      "external": 3041,
      "fibrill": 3042,
      "what": 3043,
      "represent": 3044,
      "inclusion": 3045,
      "appear": 3046,
      "hepatitis": 3047,
      "longitudinal": 3048,
      "omy": 3049,
      "skills": 3050,
      "isation": 3051,
      "uture": 3052,
      "signs": 3053,
      "afric": 3054,
      "platelet": 3055,
      "rated": 3056,
      "wards": 3057,
      "lihood": 3058,
      "double": 3059,
      "fill": 3060,
      "relap": 3061,
      "epide": 3062,
      "correspond": 3063,
      "1998": 3064,
      "residual": 3065,
      "genital": 3066,
      "likelihood": 3067,
      "repeated": 3068,
      "jection": 3069,
      "controlling": 3070,
      "lig": 3071,
      "past": 3072,
      "cing": 3073,
      "hes": 3074,
      "intervals": 3075,
      ".,": 3076,
      "surgeon": 3077,
      "ovarian": 3078,
      "facil": 3079,
      "plus": 3080,
      "learning": 3081,
      "derived": 3082,
      "aud": 3083,
      "lumbar": 3084,
      "--": 3085,
      "respect": 3086,
      "basis": 3087,
      "interviews": 3088,
      "fall": 3089,
      "cover": 3090,
      "ances": 3091,
      "ules": 3092,
      "systems": 3093,
      "episodes": 3094,
      "changed": 3095,
      "described": 3096,
      "cat": 3097,
      "vaccin": 3098,
      "cyte": 3099,
      "approximately": 3100,
      "phone": 3101,
      "persons": 3102,
      "(<": 3103,
      "energy": 3104,
      "inflammation": 3105,
      "regular": 3106,
      "abnormalities": 3107,
      "global": 3108,
      "postoperatively": 3109,
      "trig": 3110,
      "occurrence": 3111,
      "creatin": 3112,
      "diagnoses": 3113,
      "hospitalization": 3114,
      "alb": 3115,
      "race": 3116,
      "prosthe": 3117,
      "tative": 3118,
      "phal": 3119,
      "gir": 3120,
      "academic": 3121,
      "designed": 3122,
      "placed": 3123,
      "inant": 3124,
      "examinations": 3125,
      "apo": 3126,
      "describe": 3127,
      "morpho": 3128,
      "adherence": 3129,
      "net": 3130,
      "pregnant": 3131,
      "rosis": 3132,
      "overweight": 3133,
      "optimal": 3134,
      "ially": 3135,
      "members": 3136,
      "delayed": 3137,
      "motion": 3138,
      "functioning": 3139,
      "whole": 3140,
      "commonly": 3141,
      "adeno": 3142,
      "hemat": 3143,
      "cial": 3144,
      "parent": 3145,
      "creatinine": 3146,
      "coag": 3147,
      "explore": 3148,
      "suspected": 3149,
      "intro": 3150,
      "metastatic": 3151,
      "doppl": 3152,
      "aug": 3153,
      "acqu": 3154,
      "icians": 3155,
      "iring": 3156,
      "admissions": 3157,
      "lack": 3158,
      "doppler": 3159,
      "famil": 3160,
      "ics": 3161,
      "ably": 3162,
      "trop": 3163,
      "sec": 3164,
      "dias": 3165,
      "pp": 3166,
      "pec": 3167,
      "sil": 3168,
      "menopa": 3169,
      "temper": 3170,
      "peripheral": 3171,
      "sof": 3172,
      "perior": 3173,
      "prognosis": 3174,
      "situ": 3175,
      "pylori": 3176,
      "polar": 3177,
      "variance": 3178,
      "amine": 3179,
      "ranged": 3180,
      "dental": 3181,
      "acity": 3182,
      ")-": 3183,
      "standing": 3184,
      "june": 3185,
      "integr": 3186,
      "dle": 3187,
      "nat": 3188,
      "1997": 3189,
      "attit": 3190,
      "ws": 3191,
      "key": 3192,
      "predicting": 3193,
      "persistent": 3194,
      "chall": 3195,
      "lipo": 3196,
      "anesthesia": 3197,
      "water": 3198,
      "nove": 3199,
      "fraction": 3200,
      "participated": 3201,
      "var": 3202,
      "extrac": 3203,
      "08": 3204,
      "ester": 3205,
      "sues": 3206,
      "choice": 3207,
      "staging": 3208,
      "resol": 3209,
      "paed": 3210,
      "bon": 3211,
      "compli": 3212,
      "tc": 3213,
      "assisted": 3214,
      "fewer": 3215,
      "alternative": 3216,
      "expres": 3217,
      "resulted": 3218,
      "working": 3219,
      "quantitative": 3220,
      "extre": 3221,
      "clerosis": 3222,
      "superior": 3223,
      "07": 3224,
      "healthcare": 3225,
      "ato": 3226,
      "coma": 3227,
      "restric": 3228,
      "dep": 3229,
      "compris": 3230,
      "field": 3231,
      "instru": 3232,
      "len": 3233,
      "until": 3234,
      "umin": 3235,
      "ema": 3236,
      "taking": 3237,
      "surveill": 3238,
      "assay": 3239,
      "dra": 3240,
      "supple": 3241,
      "probability": 3242,
      "surveillance": 3243,
      "doses": 3244,
      "interpre": 3245,
      "crim": 3246,
      "surface": 3247,
      "interaction": 3248,
      "orts": 3249,
      "dig": 3250,
      "except": 3251,
      "bing": 3252,
      "obstruc": 3253,
      "middle": 3254,
      "proximal": 3255,
      "attitudes": 3256,
      "items": 3257,
      "hepat": 3258,
      "distress": 3259,
      "yi": 3260,
      "weighted": 3261,
      "girls": 3262,
      "power": 3263,
      "ultrasono": 3264,
      "strategy": 3265,
      "threshold": 3266,
      "bial": 3267,
      "sized": 3268,
      "schiz": 3269,
      "ize": 3270,
      "intrac": 3271,
      "treatments": 3272,
      "homo": 3273,
      "ano": 3274,
      "socioeconomic": 3275,
      "gradu": 3276,
      "percutaneous": 3277,
      "increases": 3278,
      "mixed": 3279,
      "hc": 3280,
      "cytes": 3281,
      "uptake": 3282,
      "damage": 3283,
      "strateg": 3284,
      "defic": 3285,
      "row": 3286,
      "compl": 3287,
      "perioperative": 3288,
      "diastolic": 3289,
      "erg": 3290,
      "mptomatic": 3291,
      "implantation": 3292,
      "003": 3293,
      "shoul": 3294,
      "fal": 3295,
      "rapid": 3296,
      "uterine": 3297,
      "biom": 3298,
      "logist": 3299,
      "atitis": 3300,
      "requiring": 3301,
      "unclear": 3302,
      "causes": 3303,
      "cb": 3304,
      "ious": 3305,
      "asymptomatic": 3306,
      "intravenous": 3307,
      "rheum": 3308,
      "subgroup": 3309,
      "005": 3310,
      "wave": 3311,
      "exper": 3312,
      "vascul": 3313,
      "lang": 3314,
      "located": 3315,
      "formed": 3316,
      "verte": 3317,
      "globin": 3318,
      "accept": 3319,
      "distance": 3320,
      "capacity": 3321,
      "oro": 3322,
      "1995": 3323,
      "match": 3324,
      "culture": 3325,
      "ulo": 3326,
      "itus": 3327,
      "sens": 3328,
      "occup": 3329,
      "eti": 3330,
      "worse": 3331,
      "categories": 3332,
      "spont": 3333,
      "centre": 3334,
      "controver": 3335,
      "contact": 3336,
      "rhy": 3337,
      "pregnancies": 3338,
      "component": 3339,
      "ureter": 3340,
      "boys": 3341,
      "neoplas": 3342,
      "ulty": 3343,
      "spontaneous": 3344,
      "uria": 3345,
      "unil": 3346,
      "advant": 3347,
      "highly": 3348,
      "vary": 3349,
      "stone": 3350,
      "correlations": 3351,
      "alle": 3352,
      "fort": 3353,
      "ank": 3354,
      "surviv": 3355,
      "1996": 3356,
      "rhyth": 3357,
      "lation": 3358,
      "radiographs": 3359,
      "experimental": 3360,
      "sono": 3361,
      "put": 3362,
      "making": 3363,
      "eligible": 3364,
      "nutrition": 3365,
      "means": 3366,
      "strategies": 3367,
      "2013": 3368,
      "))": 3369,
      "demographics": 3370,
      "registry": 3371,
      "ele": 3372,
      "09": 3373,
      "ival": 3374,
      "oxid": 3375,
      "devi": 3376,
      "dna": 3377,
      "bas": 3378,
      "epile": 3379,
      "recommendations": 3380,
      "traumatic": 3381,
      "prolong": 3382,
      "mmhg": 3383,
      "lax": 3384,
      "removal": 3385,
      "pg": 3386,
      "prop": 3387,
      "ays": 3388,
      "tube": 3389,
      "recently": 3390,
      "obstruction": 3391,
      "expect": 3392,
      "needle": 3393,
      "shorter": 3394,
      "gone": 3395,
      "esophag": 3396,
      "duced": 3397,
      "bile": 3398,
      "donor": 3399,
      "content": 3400,
      "asons": 3401,
      "discrim": 3402,
      "sufficient": 3403,
      "aired": 3404,
      "a1": 3405,
      "sci": 3406,
      "ophren": 3407,
      "cit": 3408,
      "closure": 3409,
      "risks": 3410,
      "failed": 3411,
      "needed": 3412,
      "resour": 3413,
      "har": 3414,
      "enzy": 3415,
      "schizophren": 3416,
      "infected": 3417,
      "amount": 3418,
      "yield": 3419,
      "cab": 3420,
      "np": 3421,
      "mono": 3422,
      "obste": 3423,
      "stratified": 3424,
      "lith": 3425,
      "near": 3426,
      "impaired": 3427,
      "relationships": 3428,
      "estimates": 3429,
      "star": 3430,
      "ambul": 3431,
      "fixation": 3432,
      "inhibit": 3433,
      "drinking": 3434,
      "unilateral": 3435,
      "programs": 3436,
      "fas": 3437,
      "sac": 3438,
      "tem": 3439,
      "invasion": 3440,
      "athy": 3441,
      "indicators": 3442,
      "nar": 3443,
      "device": 3444,
      "student": 3445,
      "crp": 3446,
      "benefits": 3447,
      "seventy": 3448,
      "albumin": 3449,
      "mell": 3450,
      "uring": 3451,
      "below": 3452,
      "developing": 3453,
      "war": 3454,
      "avoid": 3455,
      "never": 3456,
      "july": 3457,
      "educational": 3458,
      "material": 3459,
      "team": 3460,
      "undergone": 3461,
      "radiographic": 3462,
      "cystectomy": 3463,
      "surveys": 3464,
      "attention": 3465,
      "down": 3466,
      "fibrillation": 3467,
      "kine": 3468,
      "analges": 3469,
      "light": 3470,
      "dri": 3471,
      "workers": 3472,
      "populations": 3473,
      "calcium": 3474,
      "stained": 3475,
      "espec": 3476,
      "prot": 3477,
      "abuse": 3478,
      "profile": 3479,
      "cline": 3480,
      "att": 3481,
      "participation": 3482,
      "eyes": 3483,
      "especially": 3484,
      "image": 3485,
      "grafts": 3486,
      "fist": 3487,
      "application": 3488,
      "recipients": 3489,
      "):": 3490,
      "analyze": 3491,
      "multivariable": 3492,
      "epidemi": 3493,
      "pneumonia": 3494,
      "ron": 3495,
      "path": 3496,
      "reliability": 3497,
      "ula": 3498,
      "circul": 3499,
      "dietary": 3500,
      "ping": 3501,
      "subjective": 3502,
      "dementi": 3503,
      "litis": 3504,
      "pto": 3505,
      "lot": 3506,
      "feasi": 3507,
      "paper": 3508,
      "adolescent": 3509,
      "mechanical": 3510,
      "exposed": 3511,
      "ather": 3512,
      "hance": 3513,
      "eye": 3514,
      "og": 3515,
      "hetero": 3516,
      "linked": 3517,
      "extra": 3518,
      "antibiotic": 3519,
      "ablation": 3520,
      "dementia": 3521,
      "aid": 3522,
      "nuc": 3523,
      "structured": 3524,
      "repeat": 3525,
      "ded": 3526,
      "enhance": 3527,
      "preser": 3528,
      "survivors": 3529,
      "minimum": 3530,
      "yet": 3531,
      "atives": 3532,
      "itary": 3533,
      "operations": 3534,
      "phen": 3535,
      "attending": 3536,
      "task": 3537,
      "thral": 3538,
      "alter": 3539,
      "colono": 3540,
      "urg": 3541,
      "gastrointestinal": 3542,
      "xy": 3543,
      "lipid": 3544,
      "shoulder": 3545,
      "limb": 3546,
      "room": 3547,
      "pep": 3548,
      "malignancy": 3549,
      "unte": 3550,
      "tially": 3551,
      "modal": 3552,
      "operated": 3553,
      "apr": 3554,
      "reasons": 3555,
      "scales": 3556,
      "arthroplasty": 3557,
      "satis": 3558,
      "phosph": 3559,
      "fati": 3560,
      "toler": 3561,
      "stability": 3562,
      "descrip": 3563,
      "doctors": 3564,
      "detail": 3565,
      "rank": 3566,
      "%-": 3567,
      "rare": 3568,
      "subgroups": 3569,
      "volunte": 3570,
      "flex": 3571,
      "call": 3572,
      "120": 3573,
      "conser": 3574,
      "lowest": 3575,
      "bid": 3576,
      "corresponding": 3577,
      "inpatient": 3578,
      "consequ": 3579,
      "pn": 3580,
      "tuber": 3581,
      "explained": 3582,
      "ontal": 3583,
      "deep": 3584,
      "caused": 3585,
      "trends": 3586,
      "cro": 3587,
      "bidi": 3588,
      "coefficient": 3589,
      "march": 3590,
      "clinics": 3591,
      "european": 3592,
      "membr": 3593,
      "society": 3594,
      "suppor": 3595,
      "eighty": 3596,
      "melan": 3597,
      "rected": 3598,
      "arteries": 3599,
      "reaction": 3600,
      "duct": 3601,
      "substanti": 3602,
      "periods": 3603,
      "mellitus": 3604,
      "quarti": 3605,
      "grams": 3606,
      "lamp": 3607,
      "emotional": 3608,
      "obstructive": 3609,
      "endoscopy": 3610,
      "octo": 3611,
      "antibiotics": 3612,
      "hemorrhage": 3613,
      "004": 3614,
      "managed": 3615,
      "utilization": 3616,
      "nephro": 3617,
      "hearing": 3618,
      "clude": 3619,
      "professional": 3620,
      "ischemia": 3621,
      "eved": 3622,
      "lac": 3623,
      "consent": 3624,
      "practitioners": 3625,
      "rele": 3626,
      "thus": 3627,
      "world": 3628,
      "cine": 3629,
      "appe": 3630,
      "induction": 3631,
      "critical": 3632,
      "hcv": 3633,
      "regions": 3634,
      "specif": 3635,
      "compliance": 3636,
      "foot": 3637,
      "ulated": 3638,
      "drain": 3639,
      "cellular": 3640,
      "aco": 3641,
      "south": 3642,
      "viral": 3643,
      "reactive": 3644,
      "chec": 3645,
      "sph": 3646,
      "polymorph": 3647,
      "medications": 3648,
      "ie": 3649,
      "particularly": 3650,
      "tb": 3651,
      "migr": 3652,
      "another": 3653,
      "tobac": 3654,
      "cran": 3655,
      "make": 3656,
      "prediction": 3657,
      "alg": 3658,
      "lectomy": 3659,
      "guided": 3660,
      "ka": 3661,
      "slight": 3662,
      "insur": 3663,
      "origin": 3664,
      "fatigue": 3665,
      "mc": 3666,
      "attribut": 3667,
      "cesarean": 3668,
      "lective": 3669,
      "april": 3670,
      "insurance": 3671,
      "potentially": 3672,
      "molec": 3673,
      "deficiency": 3674,
      "goal": 3675,
      "gp": 3676,
      "acc": 3677,
      "regim": 3678,
      "laryn": 3679,
      "copd": 3680,
      "ending": 3681,
      "generation": 3682,
      "walking": 3683,
      "schizophrenia": 3684,
      "extr": 3685,
      "delivered": 3686,
      "vasculari": 3687,
      "seiz": 3688,
      "variability": 3689,
      "ray": 3690,
      "febr": 3691,
      "african": 3692,
      "thal": 3693,
      "insertion": 3694,
      "menopausal": 3695,
      "leak": 3696,
      "varied": 3697,
      "lr": 3698,
      "zing": 3699,
      "core": 3700,
      "false": 3701,
      "cirrho": 3702,
      "black": 3703,
      "date": 3704,
      "activation": 3705,
      "focus": 3706,
      "shock": 3707,
      "ground": 3708,
      "bipolar": 3709,
      "occlusion": 3710,
      "ands": 3711,
      "hypertensive": 3712,
      "neurological": 3713,
      "immediate": 3714,
      "chole": 3715,
      "hypothesized": 3716,
      "simple": 3717,
      "compression": 3718,
      "cand": 3719,
      "revision": 3720,
      "encies": 3721,
      "favor": 3722,
      "ier": 3723,
      "prostat": 3724,
      "ultrasonography": 3725,
      "].": 3726,
      "whose": 3727,
      "])": 3728,
      "sial": 3729,
      "communication": 3730,
      "perception": 3731,
      "undertaken": 3732,
      "list": 3733,
      "accoun": 3734,
      "establish": 3735,
      "infant": 3736,
      "nasal": 3737,
      "itative": 3738,
      "tomies": 3739,
      "epid": 3740,
      "wes": 3741,
      "opathic": 3742,
      "traditional": 3743,
      "limit": 3744,
      "perceptions": 3745,
      "mammo": 3746,
      "sn": 3747,
      "fibrosis": 3748,
      "fdg": 3749,
      "audit": 3750,
      "eclamp": 3751,
      "nel": 3752,
      "ick": 3753,
      "phil": 3754,
      "strain": 3755,
      "incis": 3756,
      "currently": 3757,
      "annual": 3758,
      "echocardiography": 3759,
      "telephone": 3760,
      "policy": 3761,
      "temporal": 3762,
      "equival": 3763,
      "great": 3764,
      "influenced": 3765,
      "furthermore": 3766,
      "mitral": 3767,
      "validated": 3768,
      "memory": 3769,
      "congenital": 3770,
      "assessing": 3771,
      "geal": 3772,
      "fasting": 3773,
      "nes": 3774,
      "icide": 3775,
      "macro": 3776,
      "expressed": 3777,
      "sched": 3778,
      "laxis": 3779,
      "oa": 3780,
      "pm": 3781,
      "static": 3782,
      "ork": 3783,
      "lysis": 3784,
      "hab": 3785,
      "bias": 3786,
      "culo": 3787,
      "tobacco": 3788,
      "gps": 3789,
      "exhib": 3790,
      "temperature": 3791,
      "decline": 3792,
      "balance": 3793,
      "donors": 3794,
      "recogn": 3795,
      "ico": 3796,
      "positively": 3797,
      "sures": 3798,
      "prostatectomy": 3799,
      "prefer": 3800,
      "histology": 3801,
      "partum": 3802,
      "blinded": 3803,
      "media": 3804,
      "indications": 3805,
      "struct": 3806,
      "mand": 3807,
      "tile": 3808,
      "allo": 3809,
      "schools": 3810,
      "signal": 3811,
      "bloc": 3812,
      "photo": 3813,
      "sect": 3814,
      "selection": 3815,
      "adhd": 3816,
      "smaller": 3817,
      "hernia": 3818,
      "descriptive": 3819,
      "lab": 3820,
      "correlate": 3821,
      "difficult": 3822,
      "future": 3823,
      "prolonged": 3824,
      "far": 3825,
      "fold": 3826,
      "investigation": 3827,
      "lact": 3828,
      "chart": 3829,
      "validity": 3830,
      "sme": 3831,
      "relapse": 3832,
      "own": 3833,
      "phar": 3834,
      "1990": 3835,
      "bacterial": 3836,
      "ergic": 3837,
      "excision": 3838,
      "ket": 3839,
      "holds": 3840,
      "geo": 3841,
      "curves": 3842,
      "assessments": 3843,
      "clusive": 3844,
      "fish": 3845,
      "intub": 3846,
      "lier": 3847,
      "mediately": 3848,
      "iq": 3849,
      "pcr": 3850,
      "vt": 3851,
      "colle": 3852,
      "biochemical": 3853,
      "numbers": 3854,
      "gam": 3855,
      "pts": 3856,
      "immediately": 3857,
      "get": 3858,
      "infusion": 3859,
      "inferior": 3860,
      "vitro": 3861,
      "wi": 3862,
      "behaviors": 3863,
      "ventilation": 3864,
      "tear": 3865,
      "hf": 3866,
      "tral": 3867,
      "steroid": 3868,
      "cumul": 3869,
      "genesis": 3870,
      "reed": 3871,
      "segment": 3872,
      "pancreatitis": 3873,
      "dimensional": 3874,
      "night": 3875,
      "fra": 3876,
      "wise": 3877,
      "iso": 3878,
      "ensive": 3879,
      "bidities": 3880,
      "compos": 3881,
      "parathy": 3882,
      "parental": 3883,
      "ologic": 3884,
      "vul": 3885,
      "emic": 3886,
      "immune": 3887,
      "much": 3888,
      "parathyro": 3889,
      "ude": 3890,
      "weak": 3891,
      "cig": 3892,
      "haem": 3893,
      "staining": 3894,
      "agon": 3895,
      "haemo": 3896,
      "qualitative": 3897,
      "corti": 3898,
      "sinus": 3899,
      "ratings": 3900,
      "margin": 3901,
      "toward": 3902,
      "pharma": 3903,
      "cycle": 3904,
      "subject": 3905,
      "acet": 3906,
      "ninety": 3907,
      "kappa": 3908,
      "needs": 3909,
      "equal": 3910,
      "correction": 3911,
      "lasia": 3912,
      "fund": 3913,
      "influen": 3914,
      "toxicity": 3915,
      "itant": 3916,
      "ulmonary": 3917,
      "suicide": 3918,
      "cordance": 3919,
      "prescription": 3920,
      "almost": 3921,
      "antibody": 3922,
      "matic": 3923,
      "receiver": 3924,
      "1994": 3925,
      "indices": 3926,
      "airway": 3927,
      "gestation": 3928,
      "complain": 3929,
      "pharmaco": 3930,
      "feren": 3931,
      "animals": 3932,
      "components": 3933,
      "ode": 3934,
      "whit": 3935,
      "programme": 3936,
      "aret": 3937,
      "stages": 3938,
      "healing": 3939,
      "izing": 3940,
      "deviation": 3941,
      "formal": 3942,
      "formul": 3943,
      "cisions": 3944,
      "category": 3945,
      "proposed": 3946,
      "differed": 3947,
      "providers": 3948,
      "importance": 3949,
      "suscep": 3950,
      "reliable": 3951,
      "stones": 3952,
      "meta": 3953,
      "focal": 3954,
      "ito": 3955,
      "hout": 3956,
      "breath": 3957,
      "resident": 3958,
      "anaesthe": 3959,
      "tember": 3960,
      "ners": 3961,
      "defects": 3962,
      "foc": 3963,
      "pump": 3964,
      "bili": 3965,
      "others": 3966,
      "asian": 3967,
      "mmol": 3968,
      "pf": 3969,
      "necrosis": 3970,
      "prescribed": 3971,
      "immunohisto": 3972,
      "idiopathic": 3973,
      "auc": 3974,
      "assu": 3975,
      "trained": 3976,
      "september": 3977,
      "neither": 3978,
      "coverage": 3979,
      "cigaret": 3980,
      "bd": 3981,
      "gf": 3982,
      "rac": 3983,
      "amous": 3984,
      "ust": 3985,
      "here": 3986,
      "shif": 3987,
      "source": 3988,
      "ht": 3989,
      "ule": 3990,
      "explor": 3991,
      "epithelial": 3992,
      "uration": 3993,
      "nea": 3994,
      "ocular": 3995,
      "reason": 3996,
      "force": 3997,
      "endometrial": 3998,
      "protective": 3999,
      "cf": 4000,
      "widely": 4001,
      "adenocarcinoma": 4002,
      "a1c": 4003,
      "multic": 4004,
      "applic": 4005,
      "prophylaxis": 4006,
      "append": 4007,
      "pren": 4008,
      "statistics": 4009,
      "volum": 4010,
      "cabg": 4011,
      "gall": 4012,
      "complicated": 4013,
      "eting": 4014,
      "eating": 4015,
      "aps": 4016,
      "duod": 4017,
      "preoperatively": 4018,
      "vaccination": 4019,
      "vascularization": 4020,
      "promo": 4021,
      "existing": 4022,
      "eclampsia": 4023,
      "concom": 4024,
      "environment": 4025,
      "controversial": 4026,
      "vative": 4027,
      "psychosocial": 4028,
      "volunteers": 4029,
      "scor": 4030,
      "wid": 4031,
      "fet": 4032,
      "maximal": 4033,
      "resistant": 4034,
      "nt": 4035,
      "ero": 4036,
      "serious": 4037,
      "candid": 4038,
      "decisions": 4039,
      "proper": 4040,
      "accurate": 4041,
      "she": 4042,
      "sepsis": 4043,
      "resulting": 4044,
      "protec": 4045,
      "finding": 4046,
      "mt": 4047,
      "arrest": 4048,
      "observer": 4049,
      "sensitive": 4050,
      "concomitant": 4051,
      "squamous": 4052,
      "ene": 4053,
      "conversion": 4054,
      "tation": 4055,
      "resus": 4056,
      "observation": 4057,
      "characterized": 4058,
      "simult": 4059,
      "generally": 4060,
      "simultaneous": 4061,
      "ldl": 4062,
      "150": 4063,
      "mature": 4064,
      "summ": 4065,
      "chon": 4066,
      "proportional": 4067,
      "tuberculo": 4068,
      "awa": 4069,
      "icle": 4070,
      "adrenal": 4071,
      "october": 4072,
      "opulmonary": 4073,
      "close": 4074,
      "sibility": 4075,
      "subsequently": 4076,
      "profession": 4077,
      "indication": 4078,
      "square": 4079,
      "comprised": 4080,
      "marked": 4081,
      "true": 4082,
      "ive": 4083,
      "lants": 4084,
      "deliver": 4085,
      "burden": 4086,
      "adhes": 4087,
      "actual": 4088,
      "aw": 4089,
      "neigh": 4090,
      "velocity": 4091,
      "contrac": 4092,
      "roc": 4093,
      "cann": 4094,
      "kele": 4095,
      "ethnicity": 4096,
      "flap": 4097,
      "gin": 4098,
      "onin": 4099,
      "substance": 4100,
      "bic": 4101,
      "biliary": 4102,
      "keletal": 4103,
      "chro": 4104,
      "minute": 4105,
      "1000": 4106,
      "quartile": 4107,
      "prolif": 4108,
      "cumulative": 4109,
      "citation": 4110,
      "earlier": 4111,
      "comparisons": 4112,
      "enzyme": 4113,
      "mood": 4114,
      "lipoprotein": 4115,
      "volumes": 4116,
      "gon": 4117,
      "glut": 4118,
      "kes": 4119,
      "completion": 4120,
      "paired": 4121,
      "implic": 4122,
      "vessel": 4123,
      "opathy": 4124,
      "episode": 4125,
      "mv": 4126,
      "labe": 4127,
      "directly": 4128,
      "dium": 4129,
      "compreh": 4130,
      "entire": 4131,
      "selective": 4132,
      "activ": 4133,
      "cas": 4134,
      "incident": 4135,
      "scar": 4136,
      "responders": 4137,
      "identification": 4138,
      "1993": 4139,
      "500": 4140,
      "cycles": 4141,
      "prolifer": 4142,
      "agents": 4143,
      "medial": 4144,
      "lifes": 4145,
      "barri": 4146,
      "langu": 4147,
      "job": 4148,
      "proj": 4149,
      "behavioral": 4150,
      "umo": 4151,
      "nurse": 4152,
      "idectomy": 4153,
      "biological": 4154,
      "implementation": 4155,
      "ambulatory": 4156,
      "account": 4157,
      "containing": 4158,
      "mechanism": 4159,
      "involving": 4160,
      "tumours": 4161,
      "took": 4162,
      "colonoscopy": 4163,
      "cholecystectomy": 4164,
      "western": 4165,
      "towards": 4166,
      "gain": 4167,
      "appeared": 4168,
      "minimal": 4169,
      "medium": 4170,
      "hemoglobin": 4171,
      "really": 4172,
      "trim": 4173,
      "assist": 4174,
      "rheumat": 4175,
      "atheros": 4176,
      "ify": 4177,
      "caregi": 4178,
      "collection": 4179,
      "progressive": 4180,
      "cohorts": 4181,
      "gyne": 4182,
      "sphinc": 4183,
      "ami": 4184,
      "neonates": 4185,
      "forms": 4186,
      "systematic": 4187,
      "obstetric": 4188,
      "dic": 4189,
      "viol": 4190,
      "randomised": 4191,
      "3d": 4192,
      "gold": 4193,
      "lea": 4194,
      "scoring": 4195,
      "grafting": 4196,
      "ament": 4197,
      "sessions": 4198,
      "embr": 4199,
      "private": 4200,
      "scored": 4201,
      "australia": 4202,
      "measuring": 4203,
      "thrombosis": 4204,
      "ada": 4205,
      "techn": 4206,
      "institutional": 4207,
      "screened": 4208,
      "bt": 4209,
      "centi": 4210,
      "alli": 4211,
      "pheno": 4212,
      "link": 4213,
      "vertebral": 4214,
      "prin": 4215,
      "radiological": 4216,
      "dual": 4217,
      "predom": 4218,
      "explored": 4219,
      "depth": 4220,
      "leading": 4221,
      "abilities": 4222,
      "solution": 4223,
      "vig": 4224,
      "acts": 4225,
      "cali": 4226,
      "initially": 4227,
      "settings": 4228,
      "aneurysm": 4229,
      "language": 4230,
      "tute": 4231,
      "arily": 4232,
      "clinicians": 4233,
      "panic": 4234,
      "bia": 4235,
      "error": 4236,
      "nd": 4237,
      "anes": 4238,
      "option": 4239,
      "cardiopulmonary": 4240,
      "concerning": 4241,
      "slightly": 4242,
      "stap": 4243,
      "ache": 4244,
      "video": 4245,
      "laser": 4246,
      "agen": 4247,
      "endothelial": 4248,
      "vised": 4249,
      "ham": 4250,
      "utility": 4251,
      "along": 4252,
      "diver": 4253,
      "methy": 4254,
      "iron": 4255,
      "planning": 4256,
      "prenatal": 4257,
      "gyneco": 4258,
      "(+": 4259,
      "osi": 4260,
      "netw": 4261,
      "cysto": 4262,
      "epilepsy": 4263,
      "ressed": 4264,
      "counter": 4265,
      "personality": 4266,
      "acquired": 4267,
      "-,": 4268,
      "hpv": 4269,
      "125": 4270,
      "oxide": 4271,
      "iop": 4272,
      "ering": 4273,
      "1992": 4274,
      "performing": 4275,
      "fixed": 4276,
      "drainage": 4277,
      "nation": 4278,
      "initiation": 4279,
      "twice": 4280,
      "chd": 4281,
      "pneumo": 4282,
      "cystic": 4283,
      "resolution": 4284,
      "olute": 4285,
      "absolute": 4286,
      "m2": 4287,
      "ole": 4288,
      "pay": 4289,
      "chromo": 4290,
      "lifesty": 4291,
      "spo": 4292,
      "usual": 4293,
      "contral": 4294,
      "ecg": 4295,
      "ull": 4296,
      "disc": 4297,
      "sper": 4298,
      "experiences": 4299,
      "gal": 4300,
      "sets": 4301,
      "intermediate": 4302,
      "planned": 4303,
      "fatal": 4304,
      "attenu": 4305,
      "ba": 4306,
      "sat": 4307,
      "produ": 4308,
      "counts": 4309,
      "histologic": 4310,
      "ureteral": 4311,
      "fully": 4312,
      "august": 4313,
      "extrem": 4314,
      "inhibitors": 4315,
      "hospitalized": 4316,
      "ranial": 4317,
      "nodal": 4318,
      "tuberculosis": 4319,
      "coagulation": 4320,
      "bra": 4321,
      "hydr": 4322,
      "followup": 4323,
      "residency": 4324,
      "comorbidity": 4325,
      "extended": 4326,
      "registered": 4327,
      "contracep": 4328,
      "carcinomas": 4329,
      "rotation": 4330,
      "families": 4331,
      "cretion": 4332,
      "lay": 4333,
      "retri": 4334,
      "atro": 4335,
      "continued": 4336,
      "removed": 4337,
      "remission": 4338,
      "006": 4339,
      "contralateral": 4340,
      "representative": 4341,
      "acted": 4342,
      "declin": 4343,
      "comfort": 4344,
      "sar": 4345,
      "sts": 4346,
      "cipl": 4347,
      "extension": 4348,
      "urethral": 4349,
      "pon": 4350,
      "yl": 4351,
      "usually": 4352,
      "mutation": 4353,
      "contribute": 4354,
      "bb": 4355,
      "hn": 4356,
      "inverse": 4357,
      "hcc": 4358,
      "adap": 4359,
      "distric": 4360,
      "equivalent": 4361,
      "lactic": 4362,
      "rd": 4363,
      "include": 4364,
      "cvd": 4365,
      "run": 4366,
      "improvements": 4367,
      "hepato": 4368,
      "correctly": 4369,
      "nas": 4370,
      "rp": 4371,
      "loid": 4372,
      "omal": 4373,
      "sampling": 4374,
      "strongly": 4375,
      "return": 4376,
      "offe": 4377,
      "production": 4378,
      "techno": 4379,
      "electronic": 4380,
      "duoden": 4381,
      "pla": 4382,
      "loco": 4383,
      "unct": 4384,
      "release": 4385,
      "yr": 4386,
      "relatively": 4387,
      "cognition": 4388,
      "postpartum": 4389,
      "mainly": 4390,
      "kaplan": 4391,
      "understanding": 4392,
      "ughout": 4393,
      "throughout": 4394,
      "distin": 4395,
      "facilities": 4396,
      "occupational": 4397,
      "bab": 4398,
      "aspirin": 4399,
      "infil": 4400,
      "species": 4401,
      "inhibitor": 4402,
      "physiological": 4403,
      "informed": 4404,
      "upon": 4405,
      "axial": 4406,
      "categorized": 4407,
      "nodules": 4408,
      "employed": 4409,
      "dsm": 4410,
      "void": 4411,
      "medicare": 4412,
      "parathyroid": 4413,
      "icial": 4414,
      "similarly": 4415,
      "reducing": 4416,
      "ok": 4417,
      "achy": 4418,
      "meier": 4419,
      "appendic": 4420,
      "atical": 4421,
      "bot": 4422,
      "cytology": 4423,
      "exact": 4424,
      "always": 4425,
      "underlying": 4426,
      "lated": 4427,
      "confound": 4428,
      "cha": 4429,
      "conservative": 4430,
      "tin": 4431,
      "neu": 4432,
      "athle": 4433,
      "lc": 4434,
      "sustained": 4435,
      "consultation": 4436,
      "lifestyle": 4437,
      "microg": 4438,
      "aspects": 4439,
      "timing": 4440,
      "cence": 4441,
      "comorbidities": 4442,
      "resuscitation": 4443,
      "uch": 4444,
      "edema": 4445,
      "acu": 4446,
      "tically": 4447,
      "camp": 4448,
      "vices": 4449,
      "interviewed": 4450,
      "space": 4451,
      "statin": 4452,
      "speed": 4453,
      "pepti": 4454,
      "newly": 4455,
      "closed": 4456,
      "saline": 4457,
      "cultures": 4458,
      "reflect": 4459,
      "embolism": 4460,
      "once": 4461,
      "glyce": 4462,
      "ding": 4463,
      "iss": 4464,
      "session": 4465,
      "digital": 4466,
      "enhancement": 4467,
      "incision": 4468,
      "trimester": 4469,
      "ming": 4470,
      "yp": 4471,
      "ecal": 4472,
      "perin": 4473,
      "context": 4474,
      "youth": 4475,
      "cluster": 4476,
      "around": 4477,
      "colitis": 4478,
      "tempor": 4479,
      "ficial": 4480,
      "sected": 4481,
      "suscepti": 4482,
      "births": 4483,
      "separate": 4484,
      "izations": 4485,
      "sources": 4486,
      "belief": 4487,
      "revascularization": 4488,
      "mark": 4489,
      "osteopor": 4490,
      "rat": 4491,
      "cuff": 4492,
      "fistula": 4493,
      "february": 4494,
      "utro": 4495,
      "live": 4496,
      "intubation": 4497,
      "college": 4498,
      "professionals": 4499,
      "ue": 4500,
      "tibial": 4501,
      "vaso": 4502,
      "check": 4503,
      "palli": 4504,
      "sr": 4505,
      "acs": 4506,
      "prepar": 4507,
      "2014": 4508,
      "fluoro": 4509,
      "jud": 4510,
      "oradi": 4511,
      "ape": 4512,
      "feed": 4513,
      "suit": 4514,
      "definition": 4515,
      "issues": 4516,
      "osteoarthritis": 4517,
      "frag": 4518,
      "pairs": 4519,
      "products": 4520,
      "lion": 4521,
      "elevation": 4522,
      "soft": 4523,
      "neur": 4524,
      "sodium": 4525,
      "invent": 4526,
      "mediated": 4527,
      "natural": 4528,
      "smear": 4529,
      "cortical": 4530,
      "provider": 4531,
      "sels": 4532,
      "chor": 4533,
      "portal": 4534,
      "rupture": 4535,
      "proven": 4536,
      "follic": 4537,
      "tex": 4538,
      "melanoma": 4539,
      "specifically": 4540,
      "ified": 4541,
      "evaluating": 4542,
      "flexion": 4543,
      "ejection": 4544,
      "aria": 4545,
      "anastomosis": 4546,
      "basal": 4547,
      "ices": 4548,
      "thropo": 4549,
      "mucosal": 4550,
      ")/": 4551,
      "enari": 4552,
      "excell": 4553,
      "vessels": 4554,
      "ballo": 4555,
      "extensive": 4556,
      "rather": 4557,
      "profil": 4558,
      "];": 4559,
      "osin": 4560,
      "counsel": 4561,
      "circumference": 4562,
      "ging": 4563,
      "caine": 4564,
      "tnf": 4565,
      "filled": 4566,
      "canadi": 4567,
      "board": 4568,
      "charts": 4569,
      "pit": 4570,
      "orb": 4571,
      "respective": 4572,
      "intracranial": 4573,
      "indicator": 4574,
      "lor": 4575,
      "orith": 4576,
      "topic": 4577,
      "algorith": 4578,
      "acks": 4579,
      "consti": 4580,
      "founder": 4581,
      "swed": 4582,
      "preferred": 4583,
      "manual": 4584,
      "tasks": 4585,
      "otic": 4586,
      "pool": 4587,
      "axillary": 4588,
      "retinal": 4589,
      "chan": 4590,
      "axis": 4591,
      "cephal": 4592,
      "confounder": 4593,
      "007": 4594,
      "mechanisms": 4595,
      "dysplasia": 4596,
      "centres": 4597,
      "radiologists": 4598,
      "structed": 4599,
      "glob": 4600,
      "twel": 4601,
      "round": 4602,
      "atell": 4603,
      "ech": 4604,
      "moreover": 4605,
      "fever": 4606,
      "comparative": 4607,
      "inventory": 4608,
      "stre": 4609,
      "hyste": 4610,
      "structure": 4611,
      "focused": 4612,
      "thin": 4613,
      "faculty": 4614,
      "additionally": 4615,
      "concerns": 4616,
      "basic": 4617,
      "complaints": 4618,
      "moti": 4619,
      "corrected": 4620,
      "prophylactic": 4621,
      "cirrhosis": 4622,
      "composite": 4623,
      "perinatal": 4624,
      "elo": 4625,
      "ond": 4626,
      "traine": 4627,
      "ea": 4628,
      "toge": 4629,
      "original": 4630,
      "dimensions": 4631,
      "trigly": 4632,
      "molecular": 4633,
      "epidural": 4634,
      "twelve": 4635,
      "together": 4636,
      "meeting": 4637,
      "produced": 4638,
      "twin": 4639,
      "manif": 4640,
      "vivo": 4641,
      "availability": 4642,
      "resources": 4643,
      "ln": 4644,
      "icd": 4645,
      "neutro": 4646,
      "nutritional": 4647,
      "hemodynamic": 4648,
      "composi": 4649,
      "preferen": 4650,
      "segments": 4651,
      "mutations": 4652,
      "balloon": 4653,
      "north": 4654,
      "depress": 4655,
      "chy": 4656,
      "ostomy": 4657,
      "challeng": 4658,
      "comprehensive": 4659,
      "responded": 4660,
      "devices": 4661,
      "dispar": 4662,
      "tingu": 4663,
      "added": 4664,
      "vc": 4665,
      "negatively": 4666,
      "fed": 4667,
      "accep": 4668,
      "perman": 4669,
      "plastic": 4670,
      "clearance": 4671,
      "scenari": 4672,
      "aneurysms": 4673,
      "exhibited": 4674,
      "fetuses": 4675,
      "triglycer": 4676,
      "atyp": 4677,
      "conver": 4678,
      "pulse": 4679,
      "vaccine": 4680,
      "reached": 4681,
      "ulum": 4682,
      "gland": 4683,
      "sterone": 4684,
      "environmental": 4685,
      "favorable": 4686,
      "iu": 4687,
      "arrhyth": 4688,
      "sum": 4689,
      "fications": 4690,
      "008": 4691,
      "distingu": 4692,
      "treating": 4693,
      "variations": 4694,
      "membrane": 4695,
      "apparent": 4696,
      "depressed": 4697,
      "]).": 4698,
      "maintained": 4699,
      "explain": 4700,
      "feasibility": 4701,
      "1991": 4702,
      "margins": 4703,
      "permanent": 4704,
      "reactions": 4705,
      "plans": 4706,
      "country": 4707,
      "chron": 4708,
      "household": 4709,
      "confounders": 4710,
      "protection": 4711,
      "cult": 4712,
      "indo": 4713,
      "phr": 4714,
      "doctor": 4715,
      "regardless": 4716,
      "tolerance": 4717,
      "chain": 4718,
      "concern": 4719,
      "offered": 4720,
      "gle": 4721,
      "percenti": 4722,
      "amn": 4723,
      "indicate": 4724,
      "indicating": 4725,
      "canadian": 4726,
      "oh": 4727,
      "ord": 4728,
      "discre": 4729,
      "portun": 4730,
      "discharged": 4731,
      "transient": 4732,
      "deficit": 4733,
      "semi": 4734,
      "lob": 4735,
      "ception": 4736,
      "aspiration": 4737,
      "pse": 4738,
      "za": 4739,
      "uled": 4740,
      "idal": 4741,
      "returned": 4742,
      "november": 4743,
      "ki": 4744,
      "root": 4745,
      "domains": 4746,
      "ai": 4747,
      "ition": 4748,
      "pid": 4749,
      "acce": 4750,
      "genous": 4751,
      "canada": 4752,
      "reading": 4753,
      "prescribing": 4754,
      "aut": 4755,
      "thought": 4756,
      "biomar": 4757,
      "bis": 4758,
      "rheumatoid": 4759,
      "omyo": 4760,
      "thern": 4761,
      "hips": 4762,
      "cessation": 4763,
      "achieve": 4764,
      "enge": 4765,
      "antidepress": 4766,
      "acceler": 4767,
      "eco": 4768,
      "transport": 4769,
      "identifying": 4770,
      "successfully": 4771,
      "iness": 4772,
      "reness": 4773,
      "opportun": 4774,
      "surveyed": 4775,
      "glomer": 4776,
      "uncture": 4777,
      "obacter": 4778,
      "%);": 4779,
      "synthe": 4780,
      "anomal": 4781,
      "start": 4782,
      "tention": 4783,
      "aggressive": 4784,
      "cts": 4785,
      "hdl": 4786,
      "dilat": 4787,
      "jap": 4788,
      "rig": 4789,
      "ingu": 4790,
      "helic": 4791,
      "thoraco": 4792,
      "predominant": 4793,
      "band": 4794,
      "web": 4795,
      "inel": 4796,
      "sections": 4797,
      "modeling": 4798,
      "composition": 4799,
      "become": 4800,
      "hba1c": 4801,
      "distinct": 4802,
      "110": 4803,
      "300": 4804,
      "office": 4805,
      "approaches": 4806,
      "junction": 4807,
      "iqr": 4808,
      "online": 4809,
      "uncertain": 4810,
      "retin": 4811,
      "align": 4812,
      "generated": 4813,
      "participating": 4814,
      "background": 4815,
      "genotype": 4816,
      "jac": 4817,
      "pas": 4818,
      "uit": 4819,
      "movement": 4820,
      "exclusion": 4821,
      "defect": 4822,
      "stant": 4823,
      "mann": 4824,
      "ligament": 4825,
      "metal": 4826,
      "distant": 4827,
      "employment": 4828,
      "lish": 4829,
      "transmission": 4830,
      "mainten": 4831,
      "sclerosis": 4832,
      "restim": 4833,
      "appearance": 4834,
      "challenge": 4835,
      "flo": 4836,
      "prepa": 4837,
      "implants": 4838,
      "routinely": 4839,
      "maintenance": 4840,
      "ras": 4841,
      "cry": 4842,
      "pharmac": 4843,
      "bmd": 4844,
      "output": 4845,
      "ranging": 4846,
      "mammography": 4847,
      "sphincter": 4848,
      "iden": 4849,
      "mast": 4850,
      "mobility": 4851,
      "radial": 4852,
      "paediatric": 4853,
      "organization": 4854,
      "lands": 4855,
      "border": 4856,
      "gent": 4857,
      "semin": 4858,
      "deb": 4859,
      "compens": 4860,
      "fev": 4861,
      "histor": 4862,
      "specialty": 4863,
      "novel": 4864,
      "jour": 4865,
      "ores": 4866,
      "usti": 4867,
      "clar": 4868,
      "colonic": 4869,
      "excellent": 4870,
      "essential": 4871,
      "chemis": 4872,
      "polyps": 4873,
      "providing": 4874,
      "accepted": 4875,
      "anish": 4876,
      "cele": 4877,
      "substantial": 4878,
      "poll": 4879,
      "color": 4880,
      "waiting": 4881,
      "dependence": 4882,
      "awareness": 4883,
      "ticle": 4884,
      "differential": 4885,
      "bri": 4886,
      "affects": 4887,
      "orient": 4888,
      "hazards": 4889,
      "andro": 4890,
      "consen": 4891,
      "weekly": 4892,
      "orer": 4893,
      "analgesia": 4894,
      "gradi": 4895,
      "tude": 4896,
      "cutoff": 4897,
      "articles": 4898,
      "gleason": 4899,
      "kines": 4900,
      "zone": 4901,
      "crt": 4902,
      "recall": 4903,
      "errors": 4904,
      "drom": 4905,
      "alysis": 4906,
      "poorer": 4907,
      "anten": 4908,
      "opio": 4909,
      "grades": 4910,
      "australian": 4911,
      "extracted": 4912,
      "discrimin": 4913,
      "inju": 4914,
      "ising": 4915,
      "sensiti": 4916,
      "finan": 4917,
      "inguinal": 4918,
      "injured": 4919,
      "xa": 4920,
      "internet": 4921,
      "prevalent": 4922,
      "broncho": 4923,
      "extremity": 4924,
      "solid": 4925,
      "azole": 4926,
      "chemistry": 4927,
      "cure": 4928,
      "agent": 4929,
      "curative": 4930,
      "detecting": 4931,
      "vin": 4932,
      "readmission": 4933,
      "regulation": 4934,
      "coup": 4935,
      "cysts": 4936,
      "palliative": 4937,
      "onal": 4938,
      "prolap": 4939,
      "hemodi": 4940,
      "participate": 4941,
      "neoadjuvant": 4942,
      "graduate": 4943,
      "confounding": 4944,
      "prepared": 4945,
      "mail": 4946,
      "acetab": 4947,
      "pseud": 4948,
      "incomplete": 4949,
      "astic": 4950,
      "ification": 4951,
      "allergic": 4952,
      "sero": 4953,
      "infer": 4954,
      "mineral": 4955,
      "aries": 4956,
      "accurately": 4957,
      "specialist": 4958,
      "mice": 4959,
      "plasia": 4960,
      "consensus": 4961,
      "xia": 4962,
      "outside": 4963,
      "cessive": 4964,
      "cartil": 4965,
      "glau": 4966,
      "accid": 4967,
      "hysterectomy": 4968,
      "crc": 4969,
      "currences": 4970,
      "autom": 4971,
      "advantage": 4972,
      "ischa": 4973,
      "excess": 4974,
      "partners": 4975,
      "specimen": 4976,
      "structural": 4977,
      "appendicitis": 4978,
      "angioplasty": 4979,
      "hla": 4980,
      "cos": 4981,
      "procedural": 4982,
      "justi": 4983,
      "laparoscopy": 4984,
      "ching": 4985,
      "display": 4986,
      "scoli": 4987,
      "define": 4988,
      "histopathological": 4989,
      "nucle": 4990,
      "spect": 4991,
      "amed": 4992,
      "105": 4993,
      "swit": 4994,
      "ais": 4995,
      "iod": 4996,
      "igg": 4997,
      "140": 4998,
      "endometri": 4999,
      "introduction": 5000,
      "propensity": 5001,
      "recognized": 5002,
      "corpor": 5003,
      "egfr": 5004,
      "profiles": 5005,
      "tg": 5006,
      "network": 5007,
      "writ": 5008,
      "reoperation": 5009,
      "lost": 5010,
      "attended": 5011,
      "facilit": 5012,
      "altered": 5013,
      "typical": 5014,
      "hp": 5015,
      "009": 5016,
      "waist": 5017,
      "suggesting": 5018,
      "atically": 5019,
      "concordance": 5020,
      "cinti": 5021,
      "facility": 5022,
      "instrument": 5023,
      "orthopaed": 5024,
      "dut": 5025,
      "covered": 5026,
      "cortis": 5027,
      "england": 5028,
      "neurologic": 5029,
      "sud": 5030,
      "tious": 5031,
      "illo": 5032,
      "apnea": 5033,
      "beneficial": 5034,
      "sentinel": 5035,
      "consequences": 5036,
      "dup": 5037,
      "vital": 5038,
      "rejection": 5039,
      "deficits": 5040,
      "pig": 5041,
      "constant": 5042,
      "anatom": 5043,
      "anatomic": 5044,
      "direction": 5045,
      "concurrent": 5046,
      "technical": 5047,
      "counseling": 5048,
      "aids": 5049,
      "hz": 5050,
      "season": 5051,
      "preference": 5052,
      "malaria": 5053,
      "headache": 5054,
      "written": 5055,
      "trum": 5056,
      "ptin": 5057,
      "ibular": 5058,
      "heterogene": 5059,
      "journal": 5060,
      "lines": 5061,
      "rv": 5062,
      "titis": 5063,
      "expend": 5064,
      "parts": 5065,
      "immunos": 5066,
      "administr": 5067,
      "properties": 5068,
      "mb": 5069,
      "sul": 5070,
      "wil": 5071,
      "entry": 5072,
      "commit": 5073,
      "certi": 5074,
      "tissues": 5075,
      "facial": 5076,
      "lymphoma": 5077,
      "oncology": 5078,
      "prolapse": 5079,
      "stop": 5080,
      "t3": 5081,
      "preced": 5082,
      "welling": 5083,
      "sequence": 5084,
      "scheduled": 5085,
      "tives": 5086,
      "anted": 5087,
      "tee": 5088,
      "adenomas": 5089,
      "ections": 5090,
      "protoco": 5091,
      "igf": 5092,
      "platin": 5093,
      "crine": 5094,
      "variates": 5095,
      "separately": 5096,
      "appen": 5097,
      "opin": 5098,
      "wom": 5099,
      "advice": 5100,
      "ready": 5101,
      "cerebro": 5102,
      "shunt": 5103,
      "solu": 5104,
      "frame": 5105,
      "quit": 5106,
      "gran": 5107,
      "influenza": 5108,
      "cigarette": 5109,
      "manifest": 5110,
      "protocols": 5111,
      "otherapy": 5112,
      "pci": 5113,
      "premature": 5114,
      "parin": 5115,
      "mucosa": 5116,
      "covariates": 5117,
      "created": 5118,
      "amino": 5119,
      "cam": 5120,
      "graded": 5121,
      "oked": 5122,
      "clc": 5123,
      "angina": 5124,
      "illin": 5125,
      "occurring": 5126,
      "dd": 5127,
      "ever": 5128,
      "gfr": 5129,
      "depriv": 5130,
      "logies": 5131,
      "factory": 5132,
      "normo": 5133,
      "athletes": 5134,
      "deprivation": 5135,
      "tun": 5136,
      "stents": 5137,
      "discipl": 5138,
      "diffusion": 5139,
      "regul": 5140,
      "patch": 5141,
      "ems": 5142,
      "cycl": 5143,
      "zes": 5144,
      "combin": 5145,
      "willing": 5146,
      "satisfied": 5147,
      "cartilage": 5148,
      "expendit": 5149,
      "scinti": 5150,
      "english": 5151,
      "ankle": 5152,
      "multicenter": 5153,
      "preferences": 5154,
      "gover": 5155,
      "xic": 5156,
      "wered": 5157,
      "coster": 5158,
      "tendon": 5159,
      "morphology": 5160,
      "corticoster": 5161,
      "project": 5162,
      "indi": 5163,
      "perine": 5164,
      "antenatal": 5165,
      "102": 5166,
      "contained": 5167,
      "acceptable": 5168,
      "brief": 5169,
      "pop": 5170,
      "suic": 5171,
      "processes": 5172,
      "attempt": 5173,
      "atherosclerosis": 5174,
      "preeclampsia": 5175,
      "pressures": 5176,
      "intention": 5177,
      "demonstrate": 5178,
      "untreated": 5179,
      "prostatic": 5180,
      "spor": 5181,
      "splen": 5182,
      "suv": 5183,
      "surgically": 5184,
      "break": 5185,
      "peptide": 5186,
      "acl": 5187,
      "exce": 5188,
      "ician": 5189,
      "mediast": 5190,
      "district": 5191,
      "bind": 5192,
      "insuff": 5193,
      "obtain": 5194,
      "submitted": 5195,
      "sensory": 5196,
      "asa": 5197,
      "deterior": 5198,
      "showing": 5199,
      "screw": 5200,
      "drop": 5201,
      "generalized": 5202,
      "bw": 5203,
      "bus": 5204,
      "fear": 5205,
      "ometry": 5206,
      "resected": 5207,
      "monito": 5208,
      "fel": 5209,
      "collagen": 5210,
      "orthopaedic": 5211,
      "monitored": 5212,
      "infectious": 5213,
      "amplit": 5214,
      "ads": 5215,
      "begin": 5216,
      "inese": 5217,
      "departments": 5218,
      "suggests": 5219,
      "definitive": 5220,
      "violence": 5221,
      "bey": 5222,
      "chinese": 5223,
      "interleuk": 5224,
      "aggreg": 5225,
      "veter": 5226,
      "hispanic": 5227,
      "nephrectomy": 5228,
      "prosthesis": 5229,
      "heparin": 5230,
      "author": 5231,
      "regimen": 5232,
      "scoliosis": 5233,
      "gap": 5234,
      "coc": 5235,
      "cardia": 5236,
      "breastfeeding": 5237,
      "minimally": 5238,
      "nearly": 5239,
      "accounted": 5240,
      "retention": 5241,
      "emis": 5242,
      "preventive": 5243,
      "atypical": 5244,
      "ido": 5245,
      "positivity": 5246,
      "width": 5247,
      "globulin": 5248,
      "dilatation": 5249,
      "issue": 5250,
      "select": 5251,
      "follows": 5252,
      "chemoradi": 5253,
      "patell": 5254,
      "tency": 5255,
      "numer": 5256,
      "gait": 5257,
      "finally": 5258,
      "coeffici": 5259,
      "shift": 5260,
      "=-": 5261,
      "aort": 5262,
      "iasis": 5263,
      "wors": 5264,
      "thre": 5265,
      "spent": 5266,
      "aryngeal": 5267,
      "papillary": 5268,
      "coefficients": 5269,
      "improving": 5270,
      "influences": 5271,
      "poorly": 5272,
      "fisher": 5273,
      "recurrences": 5274,
      "cd4": 5275,
      "apopto": 5276,
      "helicobacter": 5277,
      "financial": 5278,
      "table": 5279,
      "psychotic": 5280,
      "sln": 5281,
      "familial": 5282,
      "chondr": 5283,
      "trainees": 5284,
      "pic": 5285,
      "absor": 5286,
      "magnit": 5287,
      "thresholds": 5288,
      "criterion": 5289,
      "quantify": 5290,
      "hu": 5291,
      "sic": 5292,
      "regurg": 5293,
      "barriers": 5294,
      "acetabular": 5295,
      "glaucoma": 5296,
      "beyond": 5297,
      "interleukin": 5298,
      "fle": 5299,
      "articular": 5300,
      "nature": 5301,
      "contribution": 5302,
      "clamp": 5303,
      "felt": 5304,
      "developmental": 5305,
      "interpretation": 5306,
      "caregivers": 5307,
      "reperfusion": 5308,
      "agreed": 5309,
      "subset": 5310,
      "polymer": 5311,
      "percentile": 5312,
      "tsh": 5313,
      "101": 5314,
      "deliveries": 5315,
      "sha": 5316,
      "anthropo": 5317,
      "raine": 5318,
      "missed": 5319,
      "attempts": 5320,
      "canal": 5321,
      "relatives": 5322,
      "stiff": 5323,
      "proteins": 5324,
      "psychiat": 5325,
      "phenomen": 5326,
      "amnio": 5327,
      "corticosteroid": 5328,
      "sv": 5329,
      "tan": 5330,
      "concept": 5331,
      "evaluations": 5332,
      "bes": 5333,
      "slow": 5334,
      "coping": 5335,
      "irradiation": 5336,
      "views": 5337,
      "aves": 5338,
      "corne": 5339,
      "1988": 5340,
      "scopically": 5341,
      "million": 5342,
      "leuko": 5343,
      "cranial": 5344,
      "govern": 5345,
      "ondy": 5346,
      "locally": 5347,
      "institute": 5348,
      "bm": 5349,
      "fm": 5350,
      "exists": 5351,
      "worth": 5352,
      "pleural": 5353,
      "suitable": 5354,
      "allergy": 5355,
      "increasingly": 5356,
      "sperm": 5357,
      "deform": 5358,
      "expand": 5359,
      "clinico": 5360,
      "hepatocellular": 5361,
      "pca": 5362,
      "encephal": 5363,
      "hrqol": 5364,
      "pilot": 5365,
      "cortisol": 5366,
      "cending": 5367,
      "ome": 5368,
      "codes": 5369,
      "analo": 5370,
      "interactions": 5371,
      "hibi": 5372,
      "transcri": 5373,
      "pene": 5374,
      "sor": 5375,
      "distribut": 5376,
      "metabolism": 5377,
      "product": 5378,
      "differentiated": 5379,
      "crohn": 5380,
      "polymorphism": 5381,
      "beliefs": 5382,
      "pear": 5383,
      "feel": 5384,
      "ccus": 5385,
      "racial": 5386,
      "estro": 5387,
      "abstr": 5388,
      "troph": 5389,
      "ky": 5390,
      "scope": 5391,
      "tware": 5392,
      "103": 5393,
      "ivf": 5394,
      "fellow": 5395,
      "ologists": 5396,
      "taining": 5397,
      "ulties": 5398,
      "frontal": 5399,
      "primarily": 5400,
      "testicular": 5401,
      "experiment": 5402,
      "skill": 5403,
      "anatomical": 5404,
      "lbp": 5405,
      "leptin": 5406,
      "volution": 5407,
      "muscles": 5408,
      "audi": 5409,
      "rin": 5410,
      "cea": 5411,
      "subjected": 5412,
      "databases": 5413,
      "distinguish": 5414,
      "ible": 5415,
      "fatty": 5416,
      "migraine": 5417,
      "software": 5418,
      "seizures": 5419,
      "gens": 5420,
      "curric": 5421,
      "enough": 5422,
      "targeted": 5423,
      "anastomotic": 5424,
      "prosthetic": 5425,
      "sonography": 5426,
      "identical": 5427,
      "eas": 5428,
      "agit": 5429,
      "patency": 5430,
      "difficulty": 5431,
      "aorta": 5432,
      "regurgitation": 5433,
      "tka": 5434,
      "withdra": 5435,
      "claims": 5436,
      "animal": 5437,
      "aer": 5438,
      "tp": 5439,
      "zen": 5440,
      "provision": 5441,
      "mening": 5442,
      "grading": 5443,
      "sociodemographic": 5444,
      "etiology": 5445,
      "ycin": 5446,
      "inhal": 5447,
      "encoun": 5448,
      "encing": 5449,
      "lets": 5450,
      "presents": 5451,
      "intact": 5452,
      "detectable": 5453,
      "yielded": 5454,
      "ppv": 5455,
      "130": 5456,
      "lymphad": 5457,
      "pearson": 5458,
      "recognition": 5459,
      "uric": 5460,
      "mely": 5461,
      "brid": 5462,
      "parameter": 5463,
      "harm": 5464,
      "ost": 5465,
      "tv": 5466,
      "180": 5467,
      "scanning": 5468,
      "salv": 5469,
      "embolization": 5470,
      "hl": 5471,
      "odon": 5472,
      "tensin": 5473,
      "blunt": 5474,
      "partner": 5475,
      "bronch": 5476,
      "rf": 5477,
      "served": 5478,
      "131": 5479,
      "hyperplasia": 5480,
      "preparation": 5481,
      "fro": 5482,
      "icar": 5483,
      "pois": 5484,
      "verbal": 5485,
      "sided": 5486,
      "hemodialysis": 5487,
      "pack": 5488,
      "west": 5489,
      "eds": 5490,
      "domain": 5491,
      "localized": 5492,
      "leads": 5493,
      "difficulties": 5494,
      "eleven": 5495,
      "supported": 5496,
      ")).": 5497,
      "noise": 5498,
      "feedback": 5499,
      "germany": 5500,
      "borns": 5501,
      "princip": 5502,
      "400": 5503,
      "trus": 5504,
      "cli": 5505,
      "fri": 5506,
      "processing": 5507,
      "traction": 5508,
      "quad": 5509,
      "adop": 5510,
      "liac": 5511,
      "responsible": 5512,
      "falls": 5513,
      "magnitude": 5514,
      "eosin": 5515,
      "pretreatment": 5516,
      "consistently": 5517,
      "acuity": 5518,
      "compet": 5519,
      "histologically": 5520,
      "matching": 5521,
      "cg": 5522,
      "spectrum": 5523,
      "depending": 5524,
      "seizure": 5525,
      ")]": 5526,
      "gli": 5527,
      "determining": 5528,
      "angiotensin": 5529,
      "guideline": 5530,
      "stenting": 5531,
      "seeking": 5532,
      "retrieved": 5533,
      "atrophy": 5534,
      "cn": 5535,
      "masses": 5536,
      "saliv": 5537,
      "technology": 5538,
      "binding": 5539,
      "newborns": 5540,
      "starting": 5541,
      "limitations": 5542,
      "slo": 5543,
      "outpatients": 5544,
      "reviews": 5545,
      "rhea": 5546,
      "litho": 5547,
      "epidemiological": 5548,
      "candidates": 5549,
      "alignment": 5550,
      "hibition": 5551,
      "eeg": 5552,
      "fig": 5553,
      "reactivity": 5554,
      "productive": 5555,
      "believed": 5556,
      "modality": 5557,
      "detailed": 5558,
      "anemia": 5559,
      "displacement": 5560,
      "interquartile": 5561,
      "morbid": 5562,
      "lifetime": 5563,
      "auton": 5564,
      "conflic": 5565,
      "ckd": 5566,
      "elim": 5567,
      "standards": 5568,
      "proportions": 5569,
      "gallbladder": 5570,
      "distributed": 5571,
      "tm": 5572,
      "inhibition": 5573,
      "104": 5574,
      "functions": 5575,
      "smoke": 5576,
      "sig": 5577,
      "spi": 5578,
      "therapies": 5579,
      "goals": 5580,
      "adenoma": 5581,
      "requirements": 5582,
      "nuclear": 5583,
      "agonist": 5584,
      "threat": 5585,
      "sty": 5586,
      "dec": 5587,
      "homes": 5588,
      "panel": 5589,
      "tools": 5590,
      "transition": 5591,
      "osteoporosis": 5592,
      "neutrophil": 5593,
      "fren": 5594,
      "code": 5595,
      "understand": 5596,
      "urodynamic": 5597,
      "commer": 5598,
      "usefulness": 5599,
      "nether": 5600,
      "iliac": 5601,
      "computerized": 5602,
      "pharmacy": 5603,
      "circulation": 5604,
      "tears": 5605,
      "retinopathy": 5606,
      "netherlands": 5607,
      "natal": 5608,
      "aland": 5609,
      "sedation": 5610,
      "abscess": 5611,
      "introduced": 5612,
      "anaesthesia": 5613,
      "bari": 5614,
      "inform": 5615,
      "stabil": 5616,
      "ements": 5617,
      "labour": 5618,
      "glomerular": 5619,
      "jacent": 5620,
      "agittal": 5621,
      "septal": 5622,
      "efficiency": 5623,
      "endocrine": 5624,
      "ophthal": 5625,
      "geriatric": 5626,
      "simulation": 5627,
      "superficial": 5628,
      "neighbor": 5629,
      "incorpor": 5630,
      "die": 5631,
      "plaque": 5632,
      "insufficiency": 5633,
      "veterans": 5634,
      "neys": 5635,
      "gel": 5636,
      "indu": 5637,
      "stiffness": 5638,
      "allocated": 5639,
      "adjacent": 5640,
      "olar": 5641,
      "substi": 5642,
      "syndrom": 5643,
      "institutions": 5644,
      "methyl": 5645,
      "flexi": 5646,
      "avi": 5647,
      "exclusive": 5648,
      "postmenopausal": 5649,
      "muscu": 5650,
      "suffering": 5651,
      "whites": 5652,
      "temporary": 5653,
      "gradient": 5654,
      "hing": 5655,
      "unchanged": 5656,
      "plane": 5657,
      "analog": 5658,
      "injections": 5659,
      "determinants": 5660,
      "bour": 5661,
      "alt": 5662,
      "mini": 5663,
      "tracheal": 5664,
      "zo": 5665,
      "pouch": 5666,
      "eps": 5667,
      "colum": 5668,
      "zealand": 5669,
      "completely": 5670,
      "phosphate": 5671,
      "bit": 5672,
      "μg": 5673,
      "sem": 5674,
      "bran": 5675,
      "senior": 5676,
      "implanted": 5677,
      "thrombolysis": 5678,
      "evolution": 5679,
      "muc": 5680,
      "inner": 5681,
      "cyclo": 5682,
      "250": 5683,
      "became": 5684,
      "susceptibility": 5685,
      "union": 5686,
      "endovascular": 5687,
      "frequencies": 5688,
      "microbial": 5689,
      "comorbid": 5690,
      "sagittal": 5691,
      "kidneys": 5692,
      "electrocardio": 5693,
      "represented": 5694,
      "veget": 5695,
      "acer": 5696,
      "ante": 5697,
      "spring": 5698,
      "cauc": 5699,
      "pathogenesis": 5700,
      "classes": 5701,
      "mentary": 5702,
      "compan": 5703,
      "uments": 5704,
      "trave": 5705,
      "supp": 5706,
      "address": 5707,
      "hydroxy": 5708,
      "isa": 5709,
      "siveness": 5710,
      "ils": 5711,
      "cyste": 5712,
      "latter": 5713,
      "friend": 5714,
      "article": 5715,
      "csf": 5716,
      "pancreas": 5717,
      "resource": 5718,
      "started": 5719,
      "dc": 5720,
      "cade": 5721,
      "integrated": 5722,
      "pin": 5723,
      "lactate": 5724,
      "algorithm": 5725,
      "112": 5726,
      "enectomy": 5727,
      "dered": 5728,
      "exec": 5729,
      "implemented": 5730,
      "beginning": 5731,
      "je": 5732,
      "map": 5733,
      "osa": 5734,
      "resect": 5735,
      "esis": 5736,
      "connec": 5737,
      "chlor": 5738,
      "resting": 5739,
      "objecti": 5740,
      "suffered": 5741,
      "declined": 5742,
      "administrative": 5743,
      "emission": 5744,
      "%]": 5745,
      "gd": 5746,
      "lon": 5747,
      "erad": 5748,
      "liqu": 5749,
      "testo": 5750,
      "mesh": 5751,
      "fifteen": 5752,
      "greatest": 5753,
      "habits": 5754,
      "floor": 5755,
      "french": 5756,
      "gate": 5757,
      "era": 5758,
      "positions": 5759,
      "fourteen": 5760,
      "resections": 5761,
      "provides": 5762,
      "documentation": 5763,
      "estimation": 5764,
      "practitioner": 5765,
      "testosterone": 5766,
      "ees": 5767,
      "initiated": 5768,
      "calculate": 5769,
      "locations": 5770,
      "enroll": 5771,
      "expert": 5772,
      "leakage": 5773,
      "phenotype": 5774,
      "pooled": 5775,
      "disparities": 5776,
      "scintigraphy": 5777,
      "lp": 5778,
      "rise": 5779,
      "107": 5780,
      "attendance": 5781,
      "molar": 5782,
      "unique": 5783,
      "adc": 5784,
      "critically": 5785,
      "pathway": 5786,
      "investigations": 5787,
      "singleton": 5788,
      "empir": 5789,
      "optim": 5790,
      "ipsi": 5791,
      "physiology": 5792,
      "cx": 5793,
      "tachy": 5794,
      "umbil": 5795,
      "ectin": 5796,
      "just": 5797,
      "apping": 5798,
      "reproductive": 5799,
      "perforation": 5800,
      "americans": 5801,
      "loskeletal": 5802,
      "mastectomy": 5803,
      "disciplinary": 5804,
      "frozen": 5805,
      "fused": 5806,
      "tonsil": 5807,
      "trust": 5808,
      "saturation": 5809,
      "lm": 5810,
      "sut": 5811,
      "variety": 5812,
      "tax": 5813,
      "limits": 5814,
      "consisting": 5815,
      "walk": 5816,
      "differentiation": 5817,
      "musculoskeletal": 5818,
      "orrh": 5819,
      "triage": 5820,
      "beam": 5821,
      "stead": 5822,
      "ductal": 5823,
      "thyroidectomy": 5824,
      "explan": 5825,
      "isolates": 5826,
      "salvage": 5827,
      "objectives": 5828,
      "nm": 5829,
      "quin": 5830,
      "fourth": 5831,
      "fying": 5832,
      "indirect": 5833,
      "entered": 5834,
      "sizes": 5835,
      "parity": 5836,
      "effusion": 5837,
      "gastre": 5838,
      "palp": 5839,
      "stomy": 5840,
      "comprom": 5841,
      "generative": 5842,
      "stere": 5843,
      "alcoho": 5844,
      "register": 5845,
      "discussed": 5846,
      "laryngo": 5847,
      "ullary": 5848,
      "notes": 5849,
      "spectro": 5850,
      "medicaid": 5851,
      "quantified": 5852,
      "filtration": 5853,
      "considering": 5854,
      "anatomy": 5855,
      "estrogen": 5856,
      "pes": 5857,
      "retrograde": 5858,
      "compart": 5859,
      "herni": 5860,
      "formula": 5861,
      "next": 5862,
      "ptic": 5863,
      "instability": 5864,
      "secon": 5865,
      "chrom": 5866,
      "guidance": 5867,
      "feasible": 5868,
      "seconds": 5869,
      "suture": 5870,
      "diar": 5871,
      "106": 5872,
      "structions": 5873,
      "nsclc": 5874,
      "catheters": 5875,
      "varying": 5876,
      "cannab": 5877,
      "ipsilateral": 5878,
      "native": 5879,
      "tha": 5880,
      "heav": 5881,
      "1989": 5882,
      "decreasing": 5883,
      "gave": 5884,
      "discrepan": 5885,
      "cysteine": 5886,
      "dt": 5887,
      "forced": 5888,
      "unde": 5889,
      "marrow": 5890,
      "alterations": 5891,
      "eus": 5892,
      "paralle": 5893,
      "cold": 5894,
      "mating": 5895,
      "mostly": 5896,
      "affective": 5897,
      "absent": 5898,
      "gamma": 5899,
      "analogue": 5900,
      "lytic": 5901,
      "catheterization": 5902,
      "duodenal": 5903,
      "neighborhood": 5904,
      "gar": 5905,
      "inated": 5906,
      "atosis": 5907,
      "111": 5908,
      "missing": 5909,
      "habit": 5910,
      "ressing": 5911,
      "analyse": 5912,
      "simulated": 5913,
      "demand": 5914,
      "echocardiographic": 5915,
      "discrimination": 5916,
      "(≥": 5917,
      "dvt": 5918,
      "gm": 5919,
      "peer": 5920,
      "improves": 5921,
      "fluores": 5922,
      "thelium": 5923,
      "corneal": 5924,
      "mpa": 5925,
      "approved": 5926,
      "determination": 5927,
      "dent": 5928,
      "eries": 5929,
      "asym": 5930,
      "rhythm": 5931,
      "urgent": 5932,
      "polymerase": 5933,
      "pb": 5934,
      "menis": 5935,
      "radiology": 5936,
      "equally": 5937,
      "behaviours": 5938,
      "embry": 5939,
      "voiding": 5940,
      "anomalies": 5941,
      "alcoholic": 5942,
      "microscopy": 5943,
      "breathing": 5944,
      "phrine": 5945,
      "opioid": 5946,
      "dutch": 5947,
      "dwi": 5948,
      "pure": 5949,
      "atop": 5950,
      "uretero": 5951,
      "equation": 5952,
      "specialists": 5953,
      "stood": 5954,
      "heavy": 5955,
      "vom": 5956,
      "theory": 5957,
      "aca": 5958,
      "sured": 5959,
      "o2": 5960,
      "pot": 5961,
      "immigr": 5962,
      "allowed": 5963,
      "fine": 5964,
      "unstable": 5965,
      "spondy": 5966,
      "123": 5967,
      "femur": 5968,
      "expectations": 5969,
      "exploration": 5970,
      "ash": 5971,
      "ested": 5972,
      "relax": 5973,
      "county": 5974,
      "pedicle": 5975,
      "attempted": 5976,
      "acin": 5977,
      "milk": 5978,
      "abnormality": 5979,
      "segmental": 5980,
      ",\"": 5981,
      "rna": 5982,
      "assays": 5983,
      "reductions": 5984,
      "extraction": 5985,
      "lymphadenectomy": 5986,
      "r2": 5987,
      "chlam": 5988,
      "syno": 5989,
      "cordant": 5990,
      "laparotomy": 5991,
      "mrna": 5992,
      "gastrectomy": 5993,
      "chlamy": 5994,
      "bly": 5995,
      "fecal": 5996,
      "inadequate": 5997,
      "ofol": 5998,
      "overlap": 5999,
      "gestive": 6000,
      "catar": 6001,
      "iodine": 6002,
      "provin": 6003,
      "cardiomyo": 6004,
      "triple": 6005,
      "largest": 6006,
      "broad": 6007,
      "consultations": 6008,
      "esophagus": 6009,
      "umbilical": 6010,
      "hard": 6011,
      "revised": 6012,
      "move": 6013,
      "dermat": 6014,
      "serial": 6015,
      "examines": 6016,
      "thorax": 6017,
      "relief": 6018,
      "foods": 6019,
      "relevance": 6020,
      "lithiasis": 6021,
      "eve": 6022,
      "108": 6023,
      "raised": 6024,
      "instruments": 6025,
      "advantages": 6026,
      "109": 6027,
      "tributions": 6028,
      "policies": 6029,
      "mandibular": 6030,
      "degeneration": 6031,
      "endar": 6032,
      "placental": 6033,
      "examining": 6034,
      "anese": 6035,
      "nf": 6036,
      "compe": 6037,
      "selves": 6038,
      "behavioural": 6039,
      "regimens": 6040,
      "proliferation": 6041,
      "babies": 6042,
      "cpr": 6043,
      "speech": 6044,
      "electrical": 6045,
      "antidepressant": 6046,
      "erec": 6047,
      "twins": 6048,
      "predis": 6049,
      "evident": 6050,
      "kinson": 6051,
      "mous": 6052,
      "guide": 6053,
      "topical": 6054,
      "erectile": 6055,
      "wt": 6056,
      "revers": 6057,
      "trun": 6058,
      "necro": 6059,
      "palsy": 6060,
      "filling": 6061,
      "suicidal": 6062,
      "fres": 6063,
      "reno": 6064,
      "ony": 6065,
      "cope": 6066,
      "reser": 6067,
      "rist": 6068,
      "mito": 6069,
      "narrow": 6070,
      "nhs": 6071,
      "zil": 6072,
      "mets": 6073,
      "caes": 6074,
      "excluding": 6075,
      "allograft": 6076,
      "amplitude": 6077,
      "nr": 6078,
      "sick": 6079,
      "arms": 6080,
      "loop": 6081,
      "spir": 6082,
      "spear": 6083,
      "understood": 6084,
      "somatic": 6085,
      "drawn": 6086,
      "sonographic": 6087,
      "laryngeal": 6088,
      "fu": 6089,
      "vte": 6090,
      "degenerative": 6091,
      "parkinson": 6092,
      "mrsa": 6093,
      "ulcers": 6094,
      "ght": 6095,
      "simultaneously": 6096,
      "phenomenon": 6097,
      "usa": 6098,
      "cities": 6099,
      "whitney": 6100,
      "aure": 6101,
      "atric": 6102,
      "enteric": 6103,
      "participant": 6104,
      "discussion": 6105,
      "aware": 6106,
      "implications": 6107,
      "lis": 6108,
      "sbp": 6109,
      "arri": 6110,
      "possibility": 6111,
      "chosen": 6112,
      "consecutively": 6113,
      "localization": 6114,
      "persist": 6115,
      "attach": 6116,
      "modalities": 6117,
      "septic": 6118,
      "epine": 6119,
      "themselves": 6120,
      "referrals": 6121,
      "supplementation": 6122,
      "blockers": 6123,
      "immunohistochemistry": 6124,
      "vomiting": 6125,
      "n0": 6126,
      "oing": 6127,
      "edge": 6128,
      "plant": 6129,
      "parous": 6130,
      "german": 6131,
      "preservation": 6132,
      "infiltration": 6133,
      "kal": 6134,
      "endpoint": 6135,
      "postnatal": 6136,
      "screws": 6137,
      "neuropathy": 6138,
      "modification": 6139,
      "observations": 6140,
      "bacteria": 6141,
      "fitness": 6142,
      "varico": 6143,
      "neoplasia": 6144,
      "woman": 6145,
      ")),": 6146,
      "119": 6147,
      "ee": 6148,
      "veh": 6149,
      "urnal": 6150,
      "vertical": 6151,
      "heim": 6152,
      "bow": 6153,
      "160": 6154,
      "supine": 6155,
      "initis": 6156,
      "thirteen": 6157,
      "carriers": 6158,
      "acquis": 6159,
      "intended": 6160,
      "icc": 6161,
      "incremental": 6162,
      "blas": 6163,
      "sham": 6164,
      "neuropsychological": 6165,
      "aureus": 6166,
      "pcos": 6167,
      "stom": 6168,
      "reprodu": 6169,
      "pedic": 6170,
      "satisfactory": 6171,
      "polymorphisms": 6172,
      "enrollment": 6173,
      "expiratory": 6174,
      "sexually": 6175,
      "toxin": 6176,
      "anova": 6177,
      "already": 6178,
      "ley": 6179,
      "gross": 6180,
      "ventricle": 6181,
      "pacing": 6182,
      "contraceptive": 6183,
      "icated": 6184,
      "idine": 6185,
      "sports": 6186,
      "diffuse": 6187,
      "dominant": 6188,
      "fair": 6189,
      "hen": 6190,
      "mess": 6191,
      "patial": 6192,
      "protect": 6193,
      "exacer": 6194,
      "sou": 6195,
      "observers": 6196,
      "capsu": 6197,
      "considerable": 6198,
      "anthropometric": 6199,
      "exacerb": 6200,
      "nc": 6201,
      "stain": 6202,
      "lobe": 6203,
      "ongoing": 6204,
      "mani": 6205,
      "structures": 6206,
      "affecting": 6207,
      "remia": 6208,
      "sudden": 6209,
      "fresh": 6210,
      "caesarean": 6211,
      "t4": 6212,
      "ado": 6213,
      "sparing": 6214,
      "teeth": 6215,
      "126": 6216,
      "elisa": 6217,
      "cub": 6218,
      "psori": 6219,
      "dule": 6220,
      "autoimmune": 6221,
      "spearman": 6222,
      "ford": 6223,
      "occurs": 6224,
      "organs": 6225,
      "attitude": 6226,
      "ulcerative": 6227,
      "collabor": 6228,
      "activated": 6229,
      "warm": 6230,
      "insured": 6231,
      "theore": 6232,
      "offer": 6233,
      "restricted": 6234,
      "warfar": 6235,
      "curriculum": 6236,
      "branch": 6237,
      "warfarin": 6238,
      "cough": 6239,
      "carbon": 6240,
      "surgeries": 6241,
      "injected": 6242,
      "correlates": 6243,
      "decreases": 6244,
      "trache": 6245,
      "knees": 6246,
      "joints": 6247,
      "details": 6248,
      "attributed": 6249,
      "califor": 6250,
      "divertic": 6251,
      "nationally": 6252,
      "cannabis": 6253,
      "ascertain": 6254,
      "former": 6255,
      "sequences": 6256,
      "growing": 6257,
      "fibrino": 6258,
      "loading": 6259,
      "hbv": 6260,
      "entero": 6261,
      "trating": 6262,
      "intrauterine": 6263,
      "psychosis": 6264,
      "prescrip": 6265,
      "fellows": 6266,
      "wr": 6267,
      "discontinu": 6268,
      "subcutaneous": 6269,
      "116": 6270,
      "transverse": 6271,
      "arterio": 6272,
      "glyco": 6273,
      "propofol": 6274,
      "bg": 6275,
      "saving": 6276,
      "tai": 6277,
      "virt": 6278,
      "hemato": 6279,
      "veins": 6280,
      "dos": 6281,
      "chol": 6282,
      "definite": 6283,
      "immunohistochemical": 6284,
      "bv": 6285,
      "ny": 6286,
      "ram": 6287,
      "skeletal": 6288,
      "colectomy": 6289,
      "qualities": 6290,
      "nitro": 6291,
      "tropic": 6292,
      "california": 6293,
      "freed": 6294,
      "largely": 6295,
      "eradication": 6296,
      "inpatients": 6297,
      "asia": 6298,
      "noct": 6299,
      "aller": 6300,
      "optic": 6301,
      "posit": 6302,
      "terminal": 6303,
      "99m": 6304,
      "untary": 6305,
      "auditory": 6306,
      "parallel": 6307,
      "bular": 6308,
      "db": 6309,
      "nac": 6310,
      "rule": 6311,
      "wc": 6312,
      "ercp": 6313,
      "communities": 6314,
      "borderline": 6315,
      "(±": 6316,
      "aemia": 6317,
      "mill": 6318,
      "sap": 6319,
      "sitis": 6320,
      "options": 6321,
      "poses": 6322,
      "elds": 6323,
      "radiography": 6324,
      "changing": 6325,
      "myelo": 6326,
      "follicular": 6327,
      "scenarios": 6328,
      "2d": 6329,
      "text": 6330,
      "wing": 6331,
      "discomfort": 6332,
      "115": 6333,
      "118": 6334,
      "sixteen": 6335,
      "scienti": 6336,
      "tip": 6337,
      "iatr": 6338,
      "polyp": 6339,
      "cpb": 6340,
      "anesthetic": 6341,
      "haemorrh": 6342,
      "predominantly": 6343,
      "fev1": 6344,
      "expenditure": 6345,
      "freedom": 6346,
      "eme": 6347,
      "eded": 6348,
      "coagul": 6349,
      "onto": 6350,
      "co2": 6351,
      "sities": 6352,
      "urea": 6353,
      "monthly": 6354,
      "donation": 6355,
      "shorten": 6356,
      "recipient": 6357,
      "ischaemic": 6358,
      "mers": 6359,
      "rus": 6360,
      "representing": 6361,
      "ige": 6362,
      "itish": 6363,
      "excessive": 6364,
      "variant": 6365,
      "tooth": 6366,
      "epidemiology": 6367,
      "staphy": 6368,
      "vesti": 6369,
      "answer": 6370,
      "rich": 6371,
      "clearly": 6372,
      "ibd": 6373,
      "summary": 6374,
      "',": 6375,
      "adic": 6376,
      "examp": 6377,
      "grouped": 6378,
      "intersti": 6379,
      "answered": 6380,
      "menstr": 6381,
      "restriction": 6382,
      "allele": 6383,
      "ptsd": 6384,
      "inversely": 6385,
      ")=": 6386,
      "016": 6387,
      "directed": 6388,
      "amination": 6389,
      "subtypes": 6390,
      "cavity": 6391,
      "133": 6392,
      "progress": 6393,
      "parenchy": 6394,
      "incidental": 6395,
      "prescriptions": 6396,
      "oo": 6397,
      "ru": 6398,
      "zer": 6399,
      "british": 6400,
      "severely": 6401,
      "015": 6402,
      "ame": 6403,
      "pine": 6404,
      "dil": 6405,
      "appoint": 6406,
      "traits": 6407,
      "abortion": 6408,
      "addressed": 6409,
      "deformity": 6410,
      "staphyloco": 6411,
      "bearing": 6412,
      "probe": 6413,
      "intermit": 6414,
      "carbo": 6415,
      "nause": 6416,
      "moderately": 6417,
      "recruit": 6418,
      "duplex": 6419,
      "government": 6420,
      "encour": 6421,
      "metr": 6422,
      "adver": 6423,
      "induce": 6424,
      "employees": 6425,
      "calcification": 6426,
      "oxidative": 6427,
      "]),": 6428,
      "oto": 6429,
      "eness": 6430,
      "ario": 6431,
      "viscer": 6432,
      "shape": 6433,
      "liquid": 6434,
      "reproduci": 6435,
      "nausea": 6436,
      "bat": 6437,
      "dilation": 6438,
      "market": 6439,
      "displayed": 6440,
      "committee": 6441,
      "013": 6442,
      "utive": 6443,
      "insufficient": 6444,
      "robo": 6445,
      "sequential": 6446,
      "minority": 6447,
      "industr": 6448,
      "heimer": 6449,
      "intermittent": 6450,
      "/=": 6451,
      "reverse": 6452,
      "seal": 6453,
      "agic": 6454,
      "subtype": 6455,
      "kinase": 6456,
      "glycemic": 6457,
      "androgen": 6458,
      "ose": 6459,
      "van": 6460,
      "anticoagulation": 6461,
      "(+)": 6462,
      "preceding": 6463,
      "withdrawal": 6464,
      "sigmo": 6465,
      "cataract": 6466,
      "recording": 6467,
      "constructed": 6468,
      "promp": 6469,
      "newborn": 6470,
      "searched": 6471,
      "rab": 6472,
      "tbi": 6473,
      "mobil": 6474,
      "ights": 6475,
      "uretic": 6476,
      "llular": 6477,
      "scot": 6478,
      "rix": 6479,
      "hormonal": 6480,
      "produce": 6481,
      "biomarkers": 6482,
      "deterioration": 6483,
      "014": 6484,
      "blu": 6485,
      "coding": 6486,
      "unts": 6487,
      "logous": 6488,
      "visible": 6489,
      "coronal": 6490,
      "somal": 6491,
      "households": 6492,
      "materials": 6493,
      "'.": 6494,
      "alz": 6495,
      "ica": 6496,
      "sole": 6497,
      "124": 6498,
      "law": 6499,
      "restor": 6500,
      "cytokines": 6501,
      "bariatric": 6502,
      "acquisition": 6503,
      "011": 6504,
      "denti": 6505,
      "unrelated": 6506,
      "poreal": 6507,
      "colpo": 6508,
      "dry": 6509,
      "fluor": 6510,
      "eosinoph": 6511,
      "alzheimer": 6512,
      "(+/-": 6513,
      "india": 6514,
      "decade": 6515,
      "lla": 6516,
      "adhesion": 6517,
      "neutral": 6518,
      "bling": 6519,
      "ideal": 6520,
      "synchron": 6521,
      "morphine": 6522,
      "africa": 6523,
      "morphological": 6524,
      "passive": 6525,
      "underestim": 6526,
      "atus": 6527,
      "cop": 6528,
      "puber": 6529,
      "empty": 6530,
      "penia": 6531,
      "ontario": 6532,
      "graduates": 6533,
      "substantially": 6534,
      "infertility": 6535,
      "600": 6536,
      "york": 6537,
      "aly": 6538,
      "resis": 6539,
      "ida": 6540,
      "amide": 6541,
      "cortex": 6542,
      "mention": 6543,
      "gow": 6544,
      "marri": 6545,
      "adding": 6546,
      "differentiate": 6547,
      "tia": 6548,
      "stor": 6549,
      "coord": 6550,
      "ita": 6551,
      "bel": 6552,
      "surro": 6553,
      "plication": 6554,
      "idemia": 6555,
      "japanese": 6556,
      "cens": 6557,
      "117": 6558,
      "angiographic": 6559,
      "preserved": 6560,
      "refract": 6561,
      "meet": 6562,
      "strains": 6563,
      "condom": 6564,
      "generic": 6565,
      "birthweight": 6566,
      "gb": 6567,
      "alve": 6568,
      "coded": 6569,
      "114": 6570,
      "acellular": 6571,
      "conduction": 6572,
      "typically": 6573,
      "syndromes": 6574,
      "wear": 6575,
      "dimin": 6576,
      "abd": 6577,
      "spread": 6578,
      "caries": 6579,
      "morning": 6580,
      "favour": 6581,
      "shared": 6582,
      "patent": 6583,
      "circulating": 6584,
      "cardiomyopathy": 6585,
      "usage": 6586,
      "iru": 6587,
      "said": 6588,
      "confirm": 6589,
      "publication": 6590,
      "cortico": 6591,
      "triglycerides": 6592,
      "interstitial": 6593,
      "h2": 6594,
      "orporeal": 6595,
      "thood": 6596,
      "diagnosing": 6597,
      "kingdom": 6598,
      "standardis": 6599,
      "elements": 6600,
      "wilcox": 6601,
      "012": 6602,
      "ao": 6603,
      "ordered": 6604,
      "diap": 6605,
      "uscular": 6606,
      "meaning": 6607,
      "postal": 6608,
      "matrix": 6609,
      "operatively": 6610,
      "affili": 6611,
      "held": 6612,
      "stronger": 6613,
      "embolic": 6614,
      "transferase": 6615,
      "apoptosis": 6616,
      "contamination": 6617,
      "contraction": 6618,
      "courses": 6619,
      "achieving": 6620,
      "zyg": 6621,
      "resolved": 6622,
      "icardial": 6623,
      "theless": 6624,
      "chlear": 6625,
      "bivariate": 6626,
      "requires": 6627,
      "characterize": 6628,
      "tendency": 6629,
      "glas": 6630,
      "glycemia": 6631,
      "orientation": 6632,
      "reim": 6633,
      "deoxy": 6634,
      "microscopic": 6635,
      "pelvis": 6636,
      "anesthesi": 6637,
      "adequately": 6638,
      "capsule": 6639,
      "jug": 6640,
      "slic": 6641,
      "secretion": 6642,
      "daytime": 6643,
      "helpful": 6644,
      "lobectomy": 6645,
      "perineal": 6646,
      "executive": 6647,
      "blue": 6648,
      "eq": 6649,
      "elect": 6650,
      "chance": 6651,
      "1987": 6652,
      "radiologic": 6653,
      "placent": 6654,
      "brazil": 6655,
      "immunosup": 6656,
      "bronchial": 6657,
      "inappropriate": 6658,
      "leaf": 6659,
      "france": 6660,
      "expan": 6661,
      "aaa": 6662,
      "kinetic": 6663,
      "wilcoxon": 6664,
      "glasgow": 6665,
      "rop": 6666,
      "stated": 6667,
      "ership": 6668,
      "delta": 6669,
      "malignancies": 6670,
      "universal": 6671,
      "sweden": 6672,
      "sga": 6673,
      "scler": 6674,
      "rever": 6675,
      "113": 6676,
      "northern": 6677,
      "takes": 6678,
      "allowing": 6679,
      "migration": 6680,
      "geographic": 6681,
      "staged": 6682,
      "ectomies": 6683,
      "prone": 6684,
      "coming": 6685,
      "interrup": 6686,
      "fruit": 6687,
      "survived": 6688,
      "lymphatic": 6689,
      "attributable": 6690,
      "competence": 6691,
      "toma": 6692,
      "vef": 6693,
      "icious": 6694,
      "interventional": 6695,
      "hematoma": 6696,
      "biomechan": 6697,
      "synovi": 6698,
      "dors": 6699,
      "gia": 6700,
      "oesophageal": 6701,
      "td": 6702,
      "approval": 6703,
      "steps": 6704,
      "stepwise": 6705,
      "reimbur": 6706,
      "dol": 6707,
      "lag": 6708,
      "n2": 6709,
      "npv": 6710,
      "ssi": 6711,
      "perspective": 6712,
      "135": 6713,
      "contrain": 6714,
      "averaged": 6715,
      "conveni": 6716,
      "reduces": 6717,
      "inserted": 6718,
      "fistul": 6719,
      "mh": 6720,
      "anony": 6721,
      "alive": 6722,
      "stances": 6723,
      "tery": 6724,
      "metro": 6725,
      "imrt": 6726,
      "clinician": 6727,
      "sound": 6728,
      "receptors": 6729,
      "discuss": 6730,
      "requirement": 6731,
      "atography": 6732,
      "rarely": 6733,
      "neighbour": 6734,
      "sement": 6735,
      "religi": 6736,
      "interobserver": 6737,
      "graphically": 6738,
      "marital": 6739,
      "radiologist": 6740,
      "clean": 6741,
      "embryo": 6742,
      "amniotic": 6743,
      "inous": 6744,
      "applying": 6745,
      "consumed": 6746,
      "thyroidism": 6747,
      "stream": 6748,
      "journals": 6749,
      "granulo": 6750,
      "inequalities": 6751,
      "conduct": 6752,
      "equip": 6753,
      "burn": 6754,
      "coccal": 6755,
      "ophthalmo": 6756,
      "travel": 6757,
      "onitis": 6758,
      "ata": 6759,
      "strom": 6760,
      "ites": 6761,
      "acr": 6762,
      "fib": 6763,
      "residence": 6764,
      "consistency": 6765,
      "registration": 6766,
      "mdd": 6767,
      "rotator": 6768,
      "robotic": 6769,
      ".)": 6770,
      "multidisciplinary": 6771,
      "formations": 6772,
      "validation": 6773,
      "eighteen": 6774,
      "checklist": 6775,
      "n1": 6776,
      "represents": 6777,
      "ened": 6778,
      "tol": 6779,
      "terectomy": 6780,
      "noninvasive": 6781,
      "includes": 6782,
      "occult": 6783,
      "caps": 6784,
      "emphas": 6785,
      "amput": 6786,
      "glyca": 6787,
      "utilized": 6788,
      "definitions": 6789,
      "attenuation": 6790,
      "resectable": 6791,
      "menstrual": 6792,
      "(\"": 6793,
      "dfs": 6794,
      "lido": 6795,
      "tomographic": 6796,
      "urane": 6797,
      "justified": 6798,
      "standardised": 6799,
      "atre": 6800,
      "ofl": 6801,
      "iments": 6802,
      "variants": 6803,
      "128": 6804,
      "angi": 6805,
      "trait": 6806,
      "multilevel": 6807,
      "debate": 6808,
      "east": 6809,
      "spatial": 6810,
      "unadjusted": 6811,
      "excretion": 6812,
      "bound": 6813,
      "estimating": 6814,
      "endocardi": 6815,
      "consci": 6816,
      "readers": 6817,
      "drinkers": 6818,
      "cades": 6819,
      "transfusions": 6820,
      "pseudo": 6821,
      "heterogeneity": 6822,
      "uitary": 6823,
      "quarter": 6824,
      "fiber": 6825,
      "datase": 6826,
      "collect": 6827,
      "neoplasms": 6828,
      "pituitary": 6829,
      "vehicle": 6830,
      "fp": 6831,
      "obic": 6832,
      "hospitalizations": 6833,
      "matur": 6834,
      "stimulated": 6835,
      "acceptance": 6836,
      "driving": 6837,
      "tunnel": 6838,
      "mediastinal": 6839,
      "movements": 6840,
      "pcs": 6841,
      "wan": 6842,
      "129": 6843,
      "document": 6844,
      "promote": 6845,
      "cerebrovascular": 6846,
      "uncomplicated": 6847,
      "crit": 6848,
      "manner": 6849,
      "equations": 6850,
      "stratification": 6851,
      "tradiol": 6852,
      "proliferative": 6853,
      "synthesis": 6854,
      "lvef": 6855,
      "oth": 6856,
      "pad": 6857,
      "vegf": 6858,
      "llar": 6859,
      "systematically": 6860,
      "suppres": 6861,
      "immunization": 6862,
      "humans": 6863,
      "recommendation": 6864,
      "papillo": 6865,
      "refractory": 6866,
      "gained": 6867,
      "proved": 6868,
      "compul": 6869,
      "offspring": 6870,
      "emerged": 6871,
      "positioning": 6872,
      "isolation": 6873,
      "estradiol": 6874,
      "dectomy": 6875,
      "ifn": 6876,
      "attack": 6877,
      "lidocaine": 6878,
      "lup": 6879,
      "nmol": 6880,
      "isra": 6881,
      "1980": 6882,
      "give": 6883,
      "parametric": 6884,
      "homocysteine": 6885,
      "obstetr": 6886,
      "sector": 6887,
      "positron": 6888,
      "mn": 6889,
      "ql": 6890,
      "wides": 6891,
      "secre": 6892,
      "pread": 6893,
      "therapists": 6894,
      "antiretro": 6895,
      "effort": 6896,
      "adulthood": 6897,
      "advance": 6898,
      "caucasian": 6899,
      "widespread": 6900,
      "nis": 6901,
      "mobile": 6902,
      "121": 6903,
      "122": 6904,
      "must": 6905,
      "remote": 6906,
      "haemoglobin": 6907,
      "swedish": 6908,
      "automated": 6909,
      "chlamydia": 6910,
      "recruitment": 6911,
      "fna": 6912,
      "mir": 6913,
      "ups": 6914,
      "voluntary": 6915,
      "dysph": 6916,
      "situation": 6917,
      "analgesic": 6918,
      "maturity": 6919,
      "aking": 6920,
      "elic": 6921,
      "tionally": 6922,
      "soc": 6923,
      "shows": 6924,
      "osine": 6925,
      "suppression": 6926,
      "medicines": 6927,
      "typing": 6928,
      "faces": 6929,
      "weights": 6930,
      "parathyroidism": 6931,
      "framework": 6932,
      "alveolar": 6933,
      "vous": 6934,
      "wanted": 6935,
      "orth": 6936,
      "format": 6937,
      "arthroscopic": 6938,
      "myco": 6939,
      "preventing": 6940,
      "vulner": 6941,
      "counterparts": 6942,
      "visceral": 6943,
      "incub": 6944,
      "impul": 6945,
      "intraepithelial": 6946,
      "gastr": 6947,
      "experiments": 6948,
      "atri": 6949,
      "dee": 6950,
      "mps": 6951,
      "meal": 6952,
      "ulate": 6953,
      "mouth": 6954,
      "competi": 6955,
      "trophy": 6956,
      "arial": 6957,
      "boo": 6958,
      "antimicrobial": 6959,
      "responsiveness": 6960,
      "hyperactivity": 6961,
      "nervous": 6962,
      "latency": 6963,
      "clarify": 6964,
      "flexible": 6965,
      "bif": 6966,
      "dex": 6967,
      "cham": 6968,
      "aped": 6969,
      "cia": 6970,
      "plain": 6971,
      "ionic": 6972,
      "biliru": 6973,
      "persisted": 6974,
      "cadaver": 6975,
      "occasion": 6976,
      "cigarettes": 6977,
      "layer": 6978,
      "manipul": 6979,
      "fing": 6980,
      "rater": 6981,
      "sun": 6982,
      "waves": 6983,
      "insi": 6984,
      "valves": 6985,
      "umab": 6986,
      "medline": 6987,
      "gerd": 6988,
      "thrombin": 6989,
      "adequacy": 6990,
      "lymphocyte": 6991,
      "called": 6992,
      "lh": 6993,
      "tk": 6994,
      "atous": 6995,
      "emak": 6996,
      "reflex": 6997,
      "clerks": 6998,
      "pacemak": 6999,
      "historical": 7000,
      "kore": 7001,
      "lf": 7002,
      "pus": 7003,
      "tili": 7004,
      "diagnose": 7005,
      "gastroenter": 7006,
      "suspicious": 7007,
      "neighbourhood": 7008,
      "ibs": 7009,
      "megal": 7010,
      "polit": 7011,
      "possi": 7012,
      "green": 7013,
      "methodology": 7014,
      "accounting": 7015,
      "principal": 7016,
      "een": 7017,
      "phe": 7018,
      "homa": 7019,
      "chf": 7020,
      "apical": 7021,
      "luminal": 7022,
      "recovered": 7023,
      "lacking": 7024,
      "channel": 7025,
      "compartment": 7026,
      "scientific": 7027,
      "tf": 7028,
      "ui": 7029,
      "noti": 7030,
      "acting": 7031,
      "induc": 7032,
      "transferred": 7033,
      "comprising": 7034,
      "staphylococcus": 7035,
      "antiretroviral": 7036,
      "danish": 7037,
      "pfs": 7038,
      "arach": 7039,
      "exception": 7040,
      "prehospital": 7041,
      "invited": 7042,
      "partially": 7043,
      "smooth": 7044,
      "micromol": 7045,
      "amen": 7046,
      "physiologic": 7047,
      "macular": 7048,
      "seventeen": 7049,
      "membranes": 7050,
      "nephropathy": 7051,
      "spiro": 7052,
      "018": 7053,
      "pti": 7054,
      "ues": 7055,
      "accum": 7056,
      "truc": 7057,
      "troponin": 7058,
      "trunk": 7059,
      "5d": 7060,
      "vast": 7061,
      "price": 7062,
      "causal": 7063,
      "evoked": 7064,
      "lene": 7065,
      "homogene": 7066,
      "attenuated": 7067,
      "trophic": 7068,
      "census": 7069,
      ".\"": 7070,
      "sg": 7071,
      "diversion": 7072,
      "subclinical": 7073,
      "graphical": 7074,
      "lowering": 7075,
      "transmitted": 7076,
      "hypertrophy": 7077,
      "nineteen": 7078,
      "cytokine": 7079,
      "thromboembolism": 7080,
      "assumed": 7081,
      "endometriosis": 7082,
      "tour": 7083,
      "unced": 7084,
      "agia": 7085,
      "hier": 7086,
      "elbow": 7087,
      "nail": 7088,
      "asians": 7089,
      "exposures": 7090,
      "gastroesophageal": 7091,
      "popular": 7092,
      "adopted": 7093,
      "slope": 7094,
      "mentioned": 7095,
      "abdomen": 7096,
      "wat": 7097,
      "requency": 7098,
      "descending": 7099,
      "sense": 7100,
      "strongest": 7101,
      "blocker": 7102,
      "extracorporeal": 7103,
      "supply": 7104,
      "hierarch": 7105,
      "dal": 7106,
      "detrus": 7107,
      "hear": 7108,
      "olds": 7109,
      "neural": 7110,
      "urethro": 7111,
      "efficient": 7112,
      "acety": 7113,
      "sampled": 7114,
      "thick": 7115,
      "targets": 7116,
      "teams": 7117,
      "opinion": 7118,
      "tachycardia": 7119,
      "expansion": 7120,
      "bup": 7121,
      "verify": 7122,
      "127": 7123,
      "osing": 7124,
      "025": 7125,
      "fis": 7126,
      "icillin": 7127,
      "rose": 7128,
      "accompan": 7129,
      "bration": 7130,
      "134": 7131,
      "fertili": 7132,
      "players": 7133,
      "tonsillectomy": 7134,
      "dp": 7135,
      "pth": 7136,
      "ssa": 7137,
      "adox": 7138,
      "radiof": 7139,
      "ligation": 7140,
      "pharmacists": 7141,
      "combinations": 7142,
      "politan": 7143,
      "vf": 7144,
      "thered": 7145,
      "uts": 7146,
      "compati": 7147,
      "interfer": 7148,
      "1985": 7149,
      "017": 7150,
      "histopathologic": 7151,
      "hrs": 7152,
      "purch": 7153,
      "separated": 7154,
      "radiofrequency": 7155,
      "ball": 7156,
      "voc": 7157,
      "wrist": 7158,
      "surround": 7159,
      "132": 7160,
      "stemi": 7161,
      "intent": 7162,
      "mailed": 7163,
      "facilitate": 7164,
      "appendectomy": 7165,
      "worsening": 7166,
      "sickness": 7167,
      "nh": 7168,
      "hair": 7169,
      "137": 7170,
      "144": 7171,
      "145": 7172,
      "otherwise": 7173,
      "maintain": 7174,
      "hypother": 7175,
      "assium": 7176,
      "proteinuria": 7177,
      "adipon": 7178,
      "stimuli": 7179,
      "pathways": 7180,
      "cros": 7181,
      "potassium": 7182,
      "stomach": 7183,
      "sds": 7184,
      "ories": 7185,
      "isure": 7186,
      "decades": 7187,
      "paras": 7188,
      "achial": 7189,
      "136": 7190,
      "reader": 7191,
      "achievement": 7192,
      "ethical": 7193,
      "adolescence": 7194,
      "bolus": 7195,
      "menopause": 7196,
      "oxidant": 7197,
      "seasonal": 7198,
      "cil": 7199,
      "p53": 7200,
      "cement": 7201,
      "agers": 7202,
      "suggestive": 7203,
      "mdct": 7204,
      "extremely": 7205,
      "steroids": 7206,
      "lupus": 7207,
      "angles": 7208,
      "limbs": 7209,
      "asthmatic": 7210,
      "lumen": 7211,
      "autologous": 7212,
      "haemat": 7213,
      "patellar": 7214,
      "adiponectin": 7215,
      "bnp": 7216,
      "scap": 7217,
      "stin": 7218,
      "sters": 7219,
      "ulitis": 7220,
      "blacks": 7221,
      "metap": 7222,
      "periodontal": 7223,
      "penile": 7224,
      "dimension": 7225,
      "nationwide": 7226,
      "pneumothorax": 7227,
      "orthodon": 7228,
      "gang": 7229,
      "irrespective": 7230,
      "phases": 7231,
      "brachial": 7232,
      "fell": 7233,
      "170": 7234,
      "experts": 7235,
      "lithotri": 7236,
      "acaine": 7237,
      "theoretical": 7238,
      "iatricians": 7239,
      "mapping": 7240,
      "rof": 7241,
      "forward": 7242,
      "lol": 7243,
      "prazole": 7244,
      "thereafter": 7245,
      "recordings": 7246,
      "conditioning": 7247,
      "lad": 7248,
      "puncture": 7249,
      "promotion": 7250,
      "prono": 7251,
      "carry": 7252,
      "cholang": 7253,
      "138": 7254,
      "receipt": 7255,
      "cue": 7256,
      "avage": 7257,
      "experiencing": 7258,
      "transure": 7259,
      "researchers": 7260,
      "orthopedic": 7261,
      "trigger": 7262,
      "metropolitan": 7263,
      "detrusor": 7264,
      "ares": 7265,
      "csa": 7266,
      "asm": 7267,
      "leisure": 7268,
      "host": 7269,
      "ocd": 7270,
      "148": 7271,
      "mismatch": 7272,
      "modern": 7273,
      "nevertheless": 7274,
      "cultural": 7275,
      "opportunity": 7276,
      "manifestations": 7277,
      "gcs": 7278,
      "lens": 7279,
      "rid": 7280,
      "ars": 7281,
      "amongst": 7282,
      "painful": 7283,
      "giving": 7284,
      "her2": 7285,
      "stimulating": 7286,
      "otide": 7287,
      "herent": 7288,
      "markedly": 7289,
      "couples": 7290,
      "atopic": 7291,
      "vestibular": 7292,
      "anine": 7293,
      "dilated": 7294,
      "amy": 7295,
      "dosing": 7296,
      "hypotension": 7297,
      "electron": 7298,
      "augmentation": 7299,
      "epider": 7300,
      "willingness": 7301,
      "pup": 7302,
      "vp": 7303,
      "vr": 7304,
      "hemi": 7305,
      "dogs": 7306,
      "sym": 7307,
      "career": 7308,
      "operator": 7309,
      "failures": 7310,
      "gian": 7311,
      "ruptured": 7312,
      "files": 7313,
      "cirrhotic": 7314,
      "soluble": 7315,
      "kypho": 7316,
      "encountered": 7317,
      "salivary": 7318,
      "autonomic": 7319,
      "arrival": 7320,
      "]:": 7321,
      "san": 7322,
      "μm": 7323,
      "orous": 7324,
      "subscale": 7325,
      "anger": 7326,
      "antihypertensive": 7327,
      "genotypes": 7328,
      "febrile": 7329,
      "barrier": 7330,
      "splenic": 7331,
      "arachno": 7332,
      "acup": 7333,
      "spanish": 7334,
      "aft": 7335,
      "prelim": 7336,
      "italy": 7337,
      "ivacaine": 7338,
      "jejun": 7339,
      "pronounced": 7340,
      "transurethral": 7341,
      "019": 7342,
      "qi": 7343,
      "entity": 7344,
      "tism": 7345,
      "rib": 7346,
      "advoc": 7347,
      "stricture": 7348,
      "dyspep": 7349,
      "southern": 7350,
      "surrogate": 7351,
      "flat": 7352,
      "dele": 7353,
      "dip": 7354,
      "china": 7355,
      "emergent": 7356,
      "sacral": 7357,
      "london": 7358,
      "emptying": 7359,
      "conscious": 7360,
      "accompanied": 7361,
      "cytic": 7362,
      "malnutrition": 7363,
      "mias": 7364,
      "classic": 7365,
      "wales": 7366,
      "lymphocytes": 7367,
      "hemorrhagic": 7368,
      "avoidance": 7369,
      "motiv": 7370,
      "commercial": 7371,
      "nocturnal": 7372,
      "preliminary": 7373,
      "themes": 7374,
      "roles": 7375,
      "hemis": 7376,
      "phan": 7377,
      "oneph": 7378,
      "139": 7379,
      "osus": 7380,
      "osity": 7381,
      "cleft": 7382,
      "histopathology": 7383,
      "challenges": 7384,
      "haemorrhage": 7385,
      "convenience": 7386,
      "dor": 7387,
      "ently": 7388,
      "actually": 7389,
      "fulfilled": 7390,
      "horiz": 7391,
      "faster": 7392,
      "strepto": 7393,
      "style": 7394,
      "exclusively": 7395,
      "relaxation": 7396,
      "virtual": 7397,
      "acupuncture": 7398,
      "ov": 7399,
      "rays": 7400,
      "brachy": 7401,
      "infarct": 7402,
      "integration": 7403,
      "vertebra": 7404,
      "smears": 7405,
      "df": 7406,
      "tap": 7407,
      "isis": 7408,
      "stag": 7409,
      "construct": 7410,
      "motility": 7411,
      "apart": 7412,
      "clim": 7413,
      "dislocation": 7414,
      "fiable": 7415,
      "biof": 7416,
      "normalized": 7417,
      "intraocular": 7418,
      "organisms": 7419,
      "existence": 7420,
      "legal": 7421,
      "father": 7422,
      "psoriasis": 7423,
      "electrom": 7424,
      "uspid": 7425,
      "conclusion": 7426,
      "imped": 7427,
      "lecys": 7428,
      "aceu": 7429,
      "progester": 7430,
      "pharmaceu": 7431,
      "assistance": 7432,
      "eosinophil": 7433,
      "arachnoid": 7434,
      "aks": 7435,
      "latin": 7436,
      "rc": 7437,
      "retained": 7438,
      "decompression": 7439,
      "promin": 7440,
      "irrit": 7441,
      "viable": 7442,
      "portion": 7443,
      "malformations": 7444,
      "predicts": 7445,
      "cardiover": 7446,
      "146": 7447,
      "graphs": 7448,
      "hrag": 7449,
      "euroscore": 7450,
      "albuminuria": 7451,
      "challenging": 7452,
      "bcs": 7453,
      "ja": 7454,
      "zero": 7455,
      "abstin": 7456,
      "cryo": 7457,
      "programmes": 7458,
      "solitary": 7459,
      "oflurane": 7460,
      "progesterone": 7461,
      "b1": 7462,
      "thous": 7463,
      "fram": 7464,
      "lars": 7465,
      "nih": 7466,
      "transplanted": 7467,
      "probable": 7468,
      "osteotomy": 7469,
      "ranges": 7470,
      "clerotic": 7471,
      "nitric": 7472,
      "gonado": 7473,
      "friends": 7474,
      "anonymous": 7475,
      "wers": 7476,
      "idate": 7477,
      "142": 7478,
      "164": 7479,
      "foreign": 7480,
      "victi": 7481,
      "ptc": 7482,
      "communic": 7483,
      "fertility": 7484,
      "priority": 7485,
      "modify": 7486,
      "publications": 7487,
      "autopsy": 7488,
      "blocks": 7489,
      "diaphrag": 7490,
      "gan": 7491,
      "seems": 7492,
      "actical": 7493,
      "disrup": 7494,
      "151": 7495,
      "diameters": 7496,
      "intense": 7497,
      "lastic": 7498,
      "situations": 7499,
      "hepatectomy": 7500,
      "controversy": 7501,
      "influencing": 7502,
      "compensation": 7503,
      "accident": 7504,
      "chemoradiation": 7505,
      "pharmaceutical": 7506,
      "aign": 7507,
      "cochlear": 7508,
      "presum": 7509,
      "causing": 7510,
      "cholecys": 7511,
      "request": 7512,
      "cultured": 7513,
      "share": 7514,
      "member": 7515,
      "junc": 7516,
      "repeti": 7517,
      "campaign": 7518,
      "fertilization": 7519,
      "interferon": 7520,
      "bf": 7521,
      "hoc": 7522,
      "exchange": 7523,
      "ended": 7524,
      "berg": 7525,
      "fractions": 7526,
      "ileal": 7527,
      "percentages": 7528,
      "teachers": 7529,
      "obstetrics": 7530,
      "endarterectomy": 7531,
      "dcis": 7532,
      "dwelling": 7533,
      "lean": 7534,
      "spss": 7535,
      "0005": 7536,
      "emoral": 7537,
      "143": 7538,
      "avr": 7539,
      "thrombus": 7540,
      "expectancy": 7541,
      "1st": 7542,
      "ux": 7543,
      "split": 7544,
      "fields": 7545,
      "thanol": 7546,
      "kets": 7547,
      "consumers": 7548,
      "interpreted": 7549,
      "example": 7550,
      "024": 7551,
      "nl": 7552,
      "rcts": 7553,
      "construc": 7554,
      "hem": 7555,
      "cla": 7556,
      "clonal": 7557,
      "company": 7558,
      "intram": 7559,
      "epidemic": 7560,
      "prostheses": 7561,
      "bund": 7562,
      "mmp": 7563,
      "mary": 7564,
      "ocal": 7565,
      "scc": 7566,
      "inno": 7567,
      "train": 7568,
      "tomized": 7569,
      "sedent": 7570,
      "glands": 7571,
      "oxygenation": 7572,
      "hcg": 7573,
      "scenario": 7574,
      "biomarker": 7575,
      "married": 7576,
      "reimbursement": 7577,
      "mci": 7578,
      "rcc": 7579,
      "cluded": 7580,
      "modelling": 7581,
      "probably": 7582,
      "possibly": 7583,
      "brachytherapy": 7584,
      "sedentary": 7585,
      "lity": 7586,
      "nul": 7587,
      "subscales": 7588,
      "erythe": 7589,
      "magnes": 7590,
      "marginal": 7591,
      "rapidly": 7592,
      "leave": 7593,
      "cryst": 7594,
      "bpd": 7595,
      "mf": 7596,
      "ometer": 7597,
      "replace": 7598,
      "unexpected": 7599,
      "ago": 7600,
      "track": 7601,
      "sport": 7602,
      "gra": 7603,
      "words": 7604,
      "counse": 7605,
      "insom": 7606,
      "nicot": 7607,
      "scheme": 7608,
      "zygo": 7609,
      "attacks": 7610,
      "closely": 7611,
      "neurom": 7612,
      "japan": 7613,
      "dosage": 7614,
      ">.": 7615,
      "valv": 7616,
      "201": 7617,
      "investigating": 7618,
      "reviewers": 7619,
      "multicent": 7620,
      "penetrating": 7621,
      "chamber": 7622,
      "hearts": 7623,
      "crosso": 7624,
      "mdr": 7625,
      "nity": 7626,
      "atico": 7627,
      "hot": 7628,
      "hyperparathyroidism": 7629,
      "biologic": 7630,
      "adenosine": 7631,
      "tubes": 7632,
      "somno": 7633,
      "funding": 7634,
      "numerous": 7635,
      "religious": 7636,
      "onephrosis": 7637,
      "ethy": 7638,
      "buff": 7639,
      "rhinitis": 7640,
      "lipids": 7641,
      "worldwide": 7642,
      "corticosteroids": 7643,
      "look": 7644,
      "ulus": 7645,
      "grip": 7646,
      "plays": 7647,
      "163": 7648,
      "workload": 7649,
      "continuity": 7650,
      "sitting": 7651,
      "demands": 7652,
      "consultant": 7653,
      "gynecology": 7654,
      "\",": 7655,
      "023": 7656,
      "listed": 7657,
      "scr": 7658,
      "hered": 7659,
      "practical": 7660,
      "arians": 7661,
      "peg": 7662,
      "eluc": 7663,
      "sometimes": 7664,
      "carriage": 7665,
      "rant": 7666,
      "atp": 7667,
      "antagonist": 7668,
      "charges": 7669,
      "retroperitoneal": 7670,
      "cise": 7671,
      "clusters": 7672,
      "psychiatry": 7673,
      "persistence": 7674,
      "attachment": 7675,
      "biomechanical": 7676,
      "magnesium": 7677,
      "insomnia": 7678,
      "crossover": 7679,
      "dre": 7680,
      "ethic": 7681,
      "intakes": 7682,
      "disabilities": 7683,
      "brand": 7684,
      "presentations": 7685,
      "navig": 7686,
      "junior": 7687,
      "absorption": 7688,
      "diarrhea": 7689,
      "epinephrine": 7690,
      "ject": 7691,
      "windo": 7692,
      "spr": 7693,
      "inemia": 7694,
      "caud": 7695,
      "156": 7696,
      "referen": 7697,
      "endoscop": 7698,
      "lipidemia": 7699,
      "sulf": 7700,
      "iet": 7701,
      "existed": 7702,
      "viability": 7703,
      "tymp": 7704,
      "serot": 7705,
      "manu": 7706,
      "statins": 7707,
      "gyna": 7708,
      "lengths": 7709,
      "pancreatico": 7710,
      "acids": 7711,
      "suspic": 7712,
      "motivation": 7713,
      "arrhythmia": 7714,
      "opinions": 7715,
      "reversible": 7716,
      "kt": 7717,
      "asd": 7718,
      "actu": 7719,
      "cta": 7720,
      "bust": 7721,
      "cpap": 7722,
      "contributed": 7723,
      "maxillary": 7724,
      "frail": 7725,
      "atherosclerotic": 7726,
      "instructions": 7727,
      "nodule": 7728,
      "delir": 7729,
      "149": 7730,
      "humeral": 7731,
      "mitochondr": 7732,
      "\".": 7733,
      "gence": 7734,
      "ppi": 7735,
      "robust": 7736,
      "priat": 7737,
      "effectively": 7738,
      "regressions": 7739,
      "appropriat": 7740,
      "sexes": 7741,
      "calcifications": 7742,
      "overestim": 7743,
      "epileptic": 7744,
      "calls": 7745,
      "cystoscopy": 7746,
      "chemoradiotherapy": 7747,
      "fluorescence": 7748,
      "appropriateness": 7749,
      "tutes": 7750,
      "belong": 7751,
      "iga": 7752,
      "imt": 7753,
      "hygi": 7754,
      "microm": 7755,
      "recto": 7756,
      "rectum": 7757,
      "pancreat": 7758,
      "thoracotomy": 7759,
      "olig": 7760,
      "ffic": 7761,
      "ucle": 7762,
      "147": 7763,
      "postural": 7764,
      "hypoxia": 7765,
      "workplace": 7766,
      "thirds": 7767,
      "vo2": 7768,
      "tnm": 7769,
      "cranio": 7770,
      "hydronephrosis": 7771,
      "sarcoma": 7772,
      "discontinuation": 7773,
      "equipment": 7774,
      "amputation": 7775,
      "pacemaker": 7776,
      "thousand": 7777,
      "victims": 7778,
      "cast": 7779,
      "washing": 7780,
      "congestive": 7781,
      "lution": 7782,
      "153": 7783,
      "vesico": 7784,
      "leukocyte": 7785,
      "suspicion": 7786,
      "oil": 7787,
      "sification": 7788,
      "afil": 7789,
      "relating": 7790,
      "hyd": 7791,
      "155": 7792,
      "feature": 7793,
      "you": 7794,
      "opharyngeal": 7795,
      "pyelo": 7796,
      "filter": 7797,
      "instrumental": 7798,
      "algia": 7799,
      "spondylo": 7800,
      "atology": 7801,
      "attain": 7802,
      "coli": 7803,
      "promis": 7804,
      "igm": 7805,
      "vix": 7806,
      "opening": 7807,
      "141": 7808,
      "blast": 7809,
      "inject": 7810,
      "176": 7811,
      "avir": 7812,
      "cised": 7813,
      "transpor": 7814,
      "crude": 7815,
      "strict": 7816,
      "chondro": 7817,
      "sarco": 7818,
      "affiliated": 7819,
      "papilloma": 7820,
      "dysphagia": 7821,
      "bilirubin": 7822,
      "manufact": 7823,
      "gynaeco": 7824,
      "tise": 7825,
      "spain": 7826,
      "cervix": 7827,
      "undergraduate": 7828,
      "condy": 7829,
      "reflected": 7830,
      "categorical": 7831,
      "appears": 7832,
      "storage": 7833,
      "actuarial": 7834,
      "%/": 7835,
      "nb": 7836,
      "stool": 7837,
      "appr": 7838,
      "ciate": 7839,
      "lived": 7840,
      "1986": 7841,
      "anticoagul": 7842,
      "158": 7843,
      "polysomno": 7844,
      "hands": 7845,
      "sporadic": 7846,
      "clients": 7847,
      "instead": 7848,
      "eration": 7849,
      "aler": 7850,
      "heat": 7851,
      "18f": 7852,
      "deficient": 7853,
      "medically": 7854,
      "wait": 7855,
      "ranking": 7856,
      "massive": 7857,
      "regularly": 7858,
      "dicho": 7859,
      "converted": 7860,
      "clinicopathological": 7861,
      "decid": 7862,
      "vil": 7863,
      "allocation": 7864,
      "det": 7865,
      "parox": 7866,
      "italian": 7867,
      "anticip": 7868,
      "managing": 7869,
      "forming": 7870,
      "fifth": 7871,
      "peritonitis": 7872,
      "instrumentation": 7873,
      "clerkship": 7874,
      "big": 7875,
      "p2": 7876,
      "silic": 7877,
      "celiac": 7878,
      "oses": 7879,
      "investigators": 7880,
      "continent": 7881,
      "cmv": 7882,
      "purposes": 7883,
      "latent": 7884,
      "diabetics": 7885,
      "tropin": 7886,
      "slice": 7887,
      "delirium": 7888,
      ")].": 7889,
      "fent": 7890,
      "insp": 7891,
      "oric": 7892,
      "verified": 7893,
      "urological": 7894,
      "residential": 7895,
      "psychopathology": 7896,
      "prevented": 7897,
      "applicants": 7898,
      "combining": 7899,
      "testi": 7900,
      "aster": 7901,
      "cocaine": 7902,
      "uting": 7903,
      "distributions": 7904,
      "hyster": 7905,
      "vena": 7906,
      "caff": 7907,
      "norm": 7908,
      "viewing": 7909,
      "contain": 7910,
      "hrt": 7911,
      "potentials": 7912,
      "consul": 7913,
      "reliably": 7914,
      "necessity": 7915,
      "specified": 7916,
      "gynecologic": 7917,
      "running": 7918,
      "chondral": 7919,
      "dorsal": 7920,
      "readmissions": 7921,
      "enoid": 7922,
      "subo": 7923,
      "phi": 7924,
      "152": 7925,
      "airs": 7926,
      "integrity": 7927,
      "science": 7928,
      "opportunities": 7929,
      "sensitization": 7930,
      "threatening": 7931,
      "reserve": 7932,
      "fibrinogen": 7933,
      "028": 7934,
      "icp": 7935,
      "robot": 7936,
      "compound": 7937,
      "varies": 7938,
      "2015": 7939,
      "165": 7940,
      "limitation": 7941,
      "personnel": 7942,
      "gathered": 7943,
      "amounts": 7944,
      "agonists": 7945,
      "arrhythmias": 7946,
      "lithotripsy": 7947,
      "nulli": 7948,
      "ethics": 7949,
      "hall": 7950,
      "mur": 7951,
      "qaly": 7952,
      "rct": 7953,
      "vur": 7954,
      "wk": 7955,
      "ros": 7956,
      "coe": 7957,
      "endpoints": 7958,
      "mmse": 7959,
      "vesical": 7960,
      "regarded": 7961,
      "schedule": 7962,
      "pharmacological": 7963,
      "hematocrit": 7964,
      "anic": 7965,
      "defibrill": 7966,
      "ultim": 7967,
      "omial": 7968,
      "pharyngeal": 7969,
      "meso": 7970,
      "disturb": 7971,
      "remn": 7972,
      "aeti": 7973,
      "pneumoniae": 7974,
      "exploratory": 7975,
      "normotensive": 7976,
      "embryos": 7977,
      "fistulas": 7978,
      "1a": 7979,
      "oct": 7980,
      "rbc": 7981,
      "acial": 7982,
      "lies": 7983,
      "emg": 7984,
      "smoked": 7985,
      "maternity": 7986,
      "triglyceride": 7987,
      "022": 7988,
      "gdm": 7989,
      "vl": 7990,
      "nonoperative": 7991,
      "peritoneum": 7992,
      "safely": 7993,
      "ambulance": 7994,
      "mandatory": 7995,
      "leaks": 7996,
      "hierarchical": 7997,
      "antero": 7998,
      "arp": 7999,
      "nout": 8000,
      "derm": 8001,
      "dissemin": 8002,
      "answers": 8003,
      "erythro": 8004,
      "requested": 8005,
      "questioned": 8006,
      "consequence": 8007,
      "palpable": 8008,
      "discrepancy": 8009,
      "colposcopy": 8010,
      "ethanol": 8011,
      "pk": 8012,
      "tone": 8013,
      "tuted": 8014,
      "tima": 8015,
      "oblas": 8016,
      "subarachnoid": 8017,
      "opia": 8018,
      "traffic": 8019,
      "pulsati": 8020,
      "midline": 8021,
      "interpret": 8022,
      "surrounding": 8023,
      "horizontal": 8024,
      "fsh": 8025,
      "confined": 8026,
      "syncope": 8027,
      "uniform": 8028,
      "ximab": 8029,
      "judged": 8030,
      "sides": 8031,
      "apgar": 8032,
      "162": 8033,
      "contacted": 8034,
      "aki": 8035,
      "colour": 8036,
      "blockade": 8037,
      "solutions": 8038,
      "poison": 8039,
      "immigrants": 8040,
      "scotland": 8041,
      "acetyl": 8042,
      "easy": 8043,
      "lass": 8044,
      "mca": 8045,
      "ua": 8046,
      "vd": 8047,
      "signals": 8048,
      "paramed": 8049,
      "impacts": 8050,
      "educated": 8051,
      "artificial": 8052,
      "rheumatic": 8053,
      "satur": 8054,
      "heterogeneous": 8055,
      "aur": 8056,
      "das": 8057,
      "diverse": 8058,
      "unaffected": 8059,
      "calcit": 8060,
      "whee": 8061,
      "norway": 8062,
      "autism": 8063,
      "disturban": 8064,
      "muscular": 8065,
      "continuing": 8066,
      "drivers": 8067,
      "label": 8068,
      "susceptible": 8069,
      "synchronous": 8070,
      "nicotine": 8071,
      "disturbances": 8072,
      "(®": 8073,
      "unenhanced": 8074,
      "unexplained": 8075,
      "converse": 8076,
      "relate": 8077,
      "obtaining": 8078,
      "folate": 8079,
      "antioxidant": 8080,
      "plex": 8081,
      "visualization": 8082,
      "bcg": 8083,
      "fluoroscopy": 8084,
      "industry": 8085,
      "finger": 8086,
      "bad": 8087,
      "otomy": 8088,
      "inconsistent": 8089,
      "tibia": 8090,
      "coil": 8091,
      "semen": 8092,
      "user": 8093,
      "abp": 8094,
      "thrombotic": 8095,
      "epithelium": 8096,
      "bronchi": 8097,
      "cbt": 8098,
      "inhibitory": 8099,
      "battery": 8100,
      "immunosuppres": 8101,
      "fibrom": 8102,
      "021": 8103,
      "ovary": 8104,
      "ylo": 8105,
      "oflu": 8106,
      "arc": 8107,
      "forts": 8108,
      "unnecessary": 8109,
      "regulated": 8110,
      "hospice": 8111,
      "versity": 8112,
      "tution": 8113,
      "167": 8114,
      "organizations": 8115,
      "0002": 8116,
      "cruciate": 8117,
      "modest": 8118,
      "dependency": 8119,
      "colonization": 8120,
      "diminished": 8121,
      "placenta": 8122,
      "035": 8123,
      "hed": 8124,
      "wl": 8125,
      "reti": 8126,
      "station": 8127,
      "cores": 8128,
      "cochr": 8129,
      "hodg": 8130,
      "fundo": 8131,
      "cisplatin": 8132,
      "stimulus": 8133,
      "immunoglobulin": 8134,
      "reaching": 8135,
      "complexity": 8136,
      "implement": 8137,
      "occupation": 8138,
      "payment": 8139,
      "zygous": 8140,
      "026": 8141,
      "046": 8142,
      "c1": 8143,
      "hion": 8144,
      "pw": 8145,
      "insignificant": 8146,
      "asone": 8147,
      "secur": 8148,
      "ustic": 8149,
      "oppos": 8150,
      "posttraumatic": 8151,
      "investigates": 8152,
      "transvaginal": 8153,
      "efforts": 8154,
      "mrs": 8155,
      "exercises": 8156,
      "directors": 8157,
      "specialties": 8158,
      "esophago": 8159,
      "dedicated": 8160,
      "conflicting": 8161,
      "+)": 8162,
      "cited": 8163,
      "qt": 8164,
      "sb": 8165,
      "util": 8166,
      "usitis": 8167,
      "lox": 8168,
      "proxy": 8169,
      "157": 8170,
      "159": 8171,
      "osar": 8172,
      "169": 8173,
      "172": 8174,
      "rhoea": 8175,
      "allows": 8176,
      "stored": 8177,
      "natri": 8178,
      "coeliac": 8179,
      "hodgkin": 8180,
      "scd": 8181,
      "inges": 8182,
      "crs": 8183,
      "visited": 8184,
      "balanced": 8185,
      "detector": 8186,
      "arthroscopy": 8187,
      "circulatory": 8188,
      "clustering": 8189,
      "uncertainty": 8190,
      "indigenous": 8191,
      "diverticulitis": 8192,
      "urgency": 8193,
      "irradi": 8194,
      "stri": 8195,
      "randomization": 8196,
      "mesenteric": 8197,
      "calculation": 8198,
      "pubic": 8199,
      "flor": 8200,
      "wounds": 8201,
      "macroph": 8202,
      "clamping": 8203,
      "reproducibility": 8204,
      "hap": 8205,
      "tac": 8206,
      "tory": 8207,
      "asions": 8208,
      "dexa": 8209,
      "paradox": 8210,
      "impression": 8211,
      "terminate": 8212,
      "simulator": 8213,
      "loaded": 8214,
      "ventilator": 8215,
      "interesting": 8216,
      "leaving": 8217,
      "osteoporotic": 8218,
      "appointment": 8219,
      "210": 8220,
      "rim": 8221,
      "yrs": 8222,
      "ali": 8223,
      "division": 8224,
      "spa": 8225,
      "extend": 8226,
      "creat": 8227,
      "240": 8228,
      "affin": 8229,
      "burnout": 8230,
      "cerebe": 8231,
      "validate": 8232,
      "contributing": 8233,
      "cannulation": 8234,
      "chromosome": 8235,
      "vegetables": 8236,
      "hernias": 8237,
      "nig": 8238,
      "intima": 8239,
      "dimer": 8240,
      "mph": 8241,
      "pert": 8242,
      "irrig": 8243,
      "cannot": 8244,
      "word": 8245,
      "forearm": 8246,
      "parenter": 8247,
      "nerves": 8248,
      "typic": 8249,
      "cytometry": 8250,
      "dynamics": 8251,
      "speaking": 8252,
      "traditionally": 8253,
      "antigens": 8254,
      "adapted": 8255,
      "027": 8256,
      "dbp": 8257,
      "ota": 8258,
      "foci": 8259,
      "cava": 8260,
      "glass": 8261,
      "classical": 8262,
      "esophagitis": 8263,
      "exceeded": 8264,
      "expanded": 8265,
      "reversal": 8266,
      "stromal": 8267,
      "compulsive": 8268,
      "mra": 8269,
      "toid": 8270,
      "olid": 8271,
      "sera": 8272,
      "keep": 8273,
      "hippo": 8274,
      "174": 8275,
      "microvascular": 8276,
      "intrap": 8277,
      "hydrogen": 8278,
      "bond": 8279,
      "sensor": 8280,
      "sensation": 8281,
      "baby": 8282,
      "infiltr": 8283,
      "fragments": 8284,
      "cephalus": 8285,
      "converting": 8286,
      "inhaled": 8287,
      "mpathe": 8288,
      "conversely": 8289,
      "037": 8290,
      "colic": 8291,
      "adl": 8292,
      "abled": 8293,
      "addic": 8294,
      "pension": 8295,
      "stoma": 8296,
      "empirical": 8297,
      "valvular": 8298,
      ">/=": 8299,
      "bph": 8300,
      "fc": 8301,
      "road": 8302,
      "olateral": 8303,
      "tender": 8304,
      "intercourse": 8305,
      "whil": 8306,
      "peers": 8307,
      "licen": 8308,
      "lified": 8309,
      "supra": 8310,
      "continue": 8311,
      "repairs": 8312,
      "physiotherapy": 8313,
      "promoting": 8314,
      "orbent": 8315,
      "cycling": 8316,
      "impedance": 8317,
      "220": 8318,
      "ogen": 8319,
      "uv": 8320,
      "°,": 8321,
      "ectopic": 8322,
      "metho": 8323,
      "valuable": 8324,
      "box": 8325,
      "cured": 8326,
      "transrectal": 8327,
      "plasmin": 8328,
      "plasmic": 8329,
      "phospho": 8330,
      "circumferen": 8331,
      "hydration": 8332,
      "insight": 8333,
      "accumulation": 8334,
      "orthodontic": 8335,
      "constructs": 8336,
      "mcs": 8337,
      "pct": 8338,
      "wm": 8339,
      "ascer": 8340,
      "estic": 8341,
      "dehy": 8342,
      "resto": 8343,
      "transplants": 8344,
      "organiz": 8345,
      "occasions": 8346,
      "covering": 8347,
      "constip": 8348,
      "dollars": 8349,
      "bits": 8350,
      "vap": 8351,
      "sivity": 8352,
      "depri": 8353,
      "lia": 8354,
      "rists": 8355,
      "traject": 8356,
      "bled": 8357,
      "immunodeficiency": 8358,
      "intrad": 8359,
      "deploy": 8360,
      "applications": 8361,
      "aerobic": 8362,
      "nam": 8363,
      "ania": 8364,
      "ima": 8365,
      "capillary": 8366,
      "neoplasm": 8367,
      "spontaneously": 8368,
      "cholecystitis": 8369,
      "parenteral": 8370,
      "whilst": 8371,
      "1c": 8372,
      "gus": 8373,
      "inge": 8374,
      "unplanned": 8375,
      "paid": 8376,
      "antiplatelet": 8377,
      "cardiople": 8378,
      "military": 8379,
      "hypothyroidism": 8380,
      "limiting": 8381,
      "resten": 8382,
      "weekend": 8383,
      "serotonin": 8384,
      "cic": 8385,
      "kit": 8386,
      "tium": 8387,
      "proton": 8388,
      "suction": 8389,
      "186": 8390,
      "171": 8391,
      "domestic": 8392,
      "capture": 8393,
      "tracking": 8394,
      "beck": 8395,
      "hypothetical": 8396,
      "aspect": 8397,
      "ranked": 8398,
      "antidepressants": 8399,
      "gastritis": 8400,
      "prominent": 8401,
      "counselling": 8402,
      "testis": 8403,
      "security": 8404,
      "route": 8405,
      "ece": 8406,
      "unting": 8407,
      "cher": 8408,
      "quick": 8409,
      "door": 8410,
      "frac": 8411,
      "dying": 8412,
      "drinks": 8413,
      "fashion": 8414,
      "clinicopathologic": 8415,
      "mitochondrial": 8416,
      "hygiene": 8417,
      "natriuretic": 8418,
      "bdi": 8419,
      "tx": 8420,
      "array": 8421,
      "icit": 8422,
      "apine": 8423,
      "exclude": 8424,
      "preschool": 8425,
      "tree": 8426,
      "norwe": 8427,
      "differently": 8428,
      "strokes": 8429,
      "lock": 8430,
      "supportive": 8431,
      "caregiver": 8432,
      "rabbits": 8433,
      "pubertal": 8434,
      "disturbance": 8435,
      "gun": 8436,
      "hh": 8437,
      "diary": 8438,
      "formin": 8439,
      "excised": 8440,
      "amyl": 8441,
      "logene": 8442,
      "multifocal": 8443,
      "177": 8444,
      "sharing": 8445,
      "germ": 8446,
      "processed": 8447,
      "vacu": 8448,
      "harves": 8449,
      "driven": 8450,
      "photographs": 8451,
      "oocytes": 8452,
      "abstinence": 8453,
      "deprived": 8454,
      "048": 8455,
      "nex": 8456,
      "yal": 8457,
      "enlarge": 8458,
      "poc": 8459,
      "thermal": 8460,
      "fossa": 8461,
      "indeterminate": 8462,
      "urothelial": 8463,
      "thrombocyto": 8464,
      "probnp": 8465,
      "focusing": 8466,
      "chorionic": 8467,
      "explanation": 8468,
      "mobilization": 8469,
      "israel": 8470,
      "presumed": 8471,
      "hippocamp": 8472,
      "eval": 8473,
      "gc": 8474,
      "ptimal": 8475,
      "tl": 8476,
      "unmet": 8477,
      "peroxid": 8478,
      "precise": 8479,
      "tensi": 8480,
      "nonsignificant": 8481,
      "brt": 8482,
      "manage": 8483,
      "contacts": 8484,
      "lesser": 8485,
      "methasone": 8486,
      "ledo": 8487,
      "iceal": 8488,
      "placements": 8489,
      "impairments": 8490,
      "circumstances": 8491,
      "eligibility": 8492,
      "kinetics": 8493,
      "candidate": 8494,
      "pollen": 8495,
      "cerebrospinal": 8496,
      "splenectomy": 8497,
      "dropped": 8498,
      "audio": 8499,
      "asymmetry": 8500,
      "suboptimal": 8501,
      "dermatitis": 8502,
      "dehyde": 8503,
      "hind": 8504,
      "ofacial": 8505,
      "cosme": 8506,
      "perme": 8507,
      "concordant": 8508,
      "abi": 8509,
      "sput": 8510,
      "sah": 8511,
      "apply": 8512,
      "pediatricians": 8513,
      "otactic": 8514,
      "registr": 8515,
      "lasting": 8516,
      "hydrocephalus": 8517,
      "compliant": 8518,
      "epidemiologic": 8519,
      "composed": 8520,
      "eastern": 8521,
      "endocarditis": 8522,
      "2a": 8523,
      "eat": 8524,
      "ko": 8525,
      "orks": 8526,
      "rescue": 8527,
      "pers": 8528,
      "tread": 8529,
      "brad": 8530,
      "mania": 8531,
      "161": 8532,
      "175": 8533,
      "paradig": 8534,
      "adipose": 8535,
      "specialized": 8536,
      "illnesses": 8537,
      "leukemia": 8538,
      "esophagectomy": 8539,
      "algorithms": 8540,
      "encounters": 8541,
      "ascertained": 8542,
      "harvested": 8543,
      "d2": 8544,
      "pgy": 8545,
      "icsi": 8546,
      "wean": 8547,
      "chal": 8548,
      "sple": 8549,
      "spasm": 8550,
      "190": 8551,
      "evaluates": 8552,
      "symptomatology": 8553,
      "179": 8554,
      "volumetric": 8555,
      "benefici": 8556,
      "sleepiness": 8557,
      "bacte": 8558,
      "annually": 8559,
      "ischaemia": 8560,
      "hystero": 8561,
      "organizational": 8562,
      "restenosis": 8563,
      "treadmill": 8564,
      "km": 8565,
      "thing": 8566,
      "plates": 8567,
      "interpersonal": 8568,
      "stra": 8569,
      "transl": 8570,
      "expensive": 8571,
      "clopid": 8572,
      "ferrit": 8573,
      "registries": 8574,
      "readings": 8575,
      "quantification": 8576,
      "ventilated": 8577,
      "supplement": 8578,
      "intraclass": 8579,
      "accred": 8580,
      "chloride": 8581,
      "deemed": 8582,
      "recur": 8583,
      "spadi": 8584,
      "book": 8585,
      "undertook": 8586,
      "centered": 8587,
      "multin": 8588,
      "responsive": 8589,
      "elas": 8590,
      "initiative": 8591,
      "tilt": 8592,
      "emotion": 8593,
      "electrode": 8594,
      "neoplastic": 8595,
      "ogrel": 8596,
      "linkage": 8597,
      "locoregional": 8598,
      "poisson": 8599,
      "stereotactic": 8600,
      "underestimated": 8601,
      "cadaveric": 8602,
      "amyloid": 8603,
      "clopidogrel": 8604,
      "epo": 8605,
      "gbs": 8606,
      "lavage": 8607,
      "pent": 8608,
      "srs": 8609,
      "tong": 8610,
      "why": 8611,
      "span": 8612,
      "disper": 8613,
      "choledo": 8614,
      "154": 8615,
      "166": 8616,
      "168": 8617,
      "metformin": 8618,
      "vocal": 8619,
      "topics": 8620,
      "reconstructed": 8621,
      "binge": 8622,
      "ultrasonographic": 8623,
      "sutures": 8624,
      "province": 8625,
      "paroxys": 8626,
      "cochrane": 8627,
      "fundoplication": 8628,
      "034": 8629,
      "ahi": 8630,
      "remodeling": 8631,
      "thra": 8632,
      "ascending": 8633,
      "teric": 8634,
      "becoming": 8635,
      "trab": 8636,
      "trochan": 8637,
      "comycin": 8638,
      "interference": 8639,
      "impinge": 8640,
      "mind": 8641,
      "manic": 8642,
      "worst": 8643,
      "tricuspid": 8644,
      "carcino": 8645,
      "offic": 8646,
      "explicit": 8647,
      "peptic": 8648,
      "applicable": 8649,
      "vancomycin": 8650,
      "homogeneous": 8651,
      "gau": 8652,
      "hbs": 8653,
      "lists": 8654,
      "lification": 8655,
      "acces": 8656,
      "ultra": 8657,
      "omatous": 8658,
      "disappeared": 8659,
      "desire": 8660,
      "radius": 8661,
      "transit": 8662,
      "munici": 8663,
      "crucial": 8664,
      "nitus": 8665,
      "monotherapy": 8666,
      "tinnitus": 8667,
      "judg": 8668,
      "savings": 8669,
      "spirometry": 8670,
      "framing": 8671,
      "bundle": 8672,
      "sputum": 8673,
      "ferritin": 8674,
      "impingement": 8675,
      "oking": 8676,
      "alanine": 8677,
      "orrhea": 8678,
      "ofemoral": 8679,
      "hom": 8680,
      "note": 8681,
      "dural": 8682,
      "vicular": 8683,
      "contracti": 8684,
      "determinant": 8685,
      "insic": 8686,
      "consumer": 8687,
      "literacy": 8688,
      "practicing": 8689,
      "azol": 8690,
      "consideration": 8691,
      "sacr": 8692,
      "vignet": 8693,
      "fibromy": 8694,
      "norwegian": 8695,
      "municipal": 8696,
      "fect": 8697,
      "vats": 8698,
      "mel": 8699,
      "novo": 8700,
      "proc": 8701,
      "discordant": 8702,
      "porcine": 8703,
      "aches": 8704,
      "posity": 8705,
      "ssc": 8706,
      "185": 8707,
      "indicates": 8708,
      "adiposity": 8709,
      "modulation": 8710,
      "platelets": 8711,
      "dyspnea": 8712,
      "tubular": 8713,
      "continuously": 8714,
      "sigmoid": 8715,
      "029": 8716,
      "800": 8717,
      "overe": 8718,
      "p3": 8719,
      "wbc": 8720,
      "inally": 8721,
      "accom": 8722,
      "ecz": 8723,
      "concep": 8724,
      "illa": 8725,
      "182": 8726,
      "contract": 8727,
      "capital": 8728,
      "modulated": 8729,
      "concerned": 8730,
      "hormones": 8731,
      "dopamine": 8732,
      "supporting": 8733,
      "pigs": 8734,
      "contraindic": 8735,
      "dyspepsia": 8736,
      "ingestion": 8737,
      "gma": 8738,
      "pta": 8739,
      "ecmo": 8740,
      "illu": 8741,
      "performan": 8742,
      "hospitalisation": 8743,
      "istan": 8744,
      "tubal": 8745,
      "termination": 8746,
      "emerging": 8747,
      "build": 8748,
      "supplements": 8749,
      "acoustic": 8750,
      "immunosorbent": 8751,
      "feeling": 8752,
      "stabilization": 8753,
      "opposite": 8754,
      "irradiated": 8755,
      "enlargement": 8756,
      "performances": 8757,
      "binary": 8758,
      "fn": 8759,
      "g1": 8760,
      "ione": 8761,
      "ulnar": 8762,
      "aga": 8763,
      "chic": 8764,
      "sympathe": 8765,
      "trex": 8766,
      "namely": 8767,
      "intoler": 8768,
      "describing": 8769,
      "protected": 8770,
      "districts": 8771,
      "favourable": 8772,
      "paroxysmal": 8773,
      "-.": 8774,
      "036": 8775,
      "fvc": 8776,
      "kary": 8777,
      "std": 8778,
      "deal": 8779,
      "ambi": 8780,
      "create": 8781,
      "cystatin": 8782,
      "1984": 8783,
      "opposed": 8784,
      "rhin": 8785,
      "pneumon": 8786,
      "regulatory": 8787,
      "spectroscopy": 8788,
      "fellowship": 8789,
      "anesthesiologists": 8790,
      "fibromyalgia": 8791,
      "045": 8792,
      "gg": 8793,
      "ya": 8794,
      "unable": 8795,
      "bever": 8796,
      "prolact": 8797,
      "extract": 8798,
      "irr": 8799,
      "thermo": 8800,
      "rising": 8801,
      "192": 8802,
      "maneu": 8803,
      "187": 8804,
      "178": 8805,
      "intentions": 8806,
      "film": 8807,
      "transitional": 8808,
      "quartiles": 8809,
      "ketamine": 8810,
      "weakness": 8811,
      "contraception": 8812,
      "figures": 8813,
      "mucinous": 8814,
      "collaborative": 8815,
      "manufacture": 8816,
      "nulliparous": 8817,
      "plexus": 8818,
      "buc": 8819,
      "fh": 8820,
      "hence": 8821,
      "ises": 8822,
      "tography": 8823,
      "concus": 8824,
      "moment": 8825,
      "uclear": 8826,
      "malformation": 8827,
      "independ": 8828,
      "delays": 8829,
      "etine": 8830,
      "myocardium": 8831,
      "immunoassay": 8832,
      "appropriately": 8833,
      "brady": 8834,
      "mach": 8835,
      "wit": 8836,
      "este": 8837,
      "seem": 8838,
      "itself": 8839,
      "lots": 8840,
      "cially": 8841,
      "displaced": 8842,
      "dss": 8843,
      "spectral": 8844,
      "front": 8845,
      "contamin": 8846,
      "adjustments": 8847,
      "amplification": 8848,
      "seemed": 8849,
      "compromise": 8850,
      "constipation": 8851,
      "eczema": 8852,
      "ah": 8853,
      "nsa": 8854,
      "s1": 8855,
      "wis": 8856,
      "ende": 8857,
      "aldo": 8858,
      "pover": 8859,
      "aberr": 8860,
      "hemost": 8861,
      "outflow": 8862,
      "pathic": 8863,
      "elastic": 8864,
      "particles": 8865,
      "diaz": 8866,
      "transformation": 8867,
      "analyzing": 8868,
      "axel": 8869,
      "enrol": 8870,
      "kert": 8871,
      "geographical": 8872,
      "implicated": 8873,
      "poverty": 8874,
      "kcal": 8875,
      "repl": 8876,
      "ancre": 8877,
      "coccus": 8878,
      "abduction": 8879,
      "dosi": 8880,
      "optical": 8881,
      "overnight": 8882,
      "brac": 8883,
      "fungal": 8884,
      "transfused": 8885,
      "dye": 8886,
      "sternal": 8887,
      "implantable": 8888,
      "t2dm": 8889,
      "television": 8890,
      "macroscopic": 8891,
      "esteem": 8892,
      "dar": 8893,
      "ku": 8894,
      "kind": 8895,
      "kill": 8896,
      "naf": 8897,
      "uco": 8898,
      "wire": 8899,
      "asic": 8900,
      "nore": 8901,
      "ife": 8902,
      "gray": 8903,
      "likert": 8904,
      "embed": 8905,
      "pris": 8906,
      "thereby": 8907,
      "saw": 8908,
      "posing": 8909,
      "dram": 8910,
      "ventral": 8911,
      "engagement": 8912,
      "discussions": 8913,
      "oncologic": 8914,
      "restrictive": 8915,
      "retrieval": 8916,
      "discriminate": 8917,
      "spleen": 8918,
      "047": 8919,
      "fv": 8920,
      "inate": 8921,
      "looked": 8922,
      "extub": 8923,
      "compares": 8924,
      "sui": 8925,
      "precision": 8926,
      "anyl": 8927,
      "individually": 8928,
      "giant": 8929,
      "polycystic": 8930,
      "thromboembolic": 8931,
      "anaesthetic": 8932,
      "assumption": 8933,
      "orbital": 8934,
      "shortening": 8935,
      "h2o": 8936,
      "hereditary": 8937,
      "accommod": 8938,
      "010": 8939,
      "039": 8940,
      "049": 8941,
      "lute": 8942,
      "swe": 8943,
      "alkal": 8944,
      "hex": 8945,
      "quer": 8946,
      "disco": 8947,
      "comas": 8948,
      "196": 8949,
      "bedside": 8950,
      "sterno": 8951,
      "targeting": 8952,
      "substances": 8953,
      "nested": 8954,
      "indian": 8955,
      "ostasis": 8956,
      "nyha": 8957,
      "saphen": 8958,
      "phantom": 8959,
      "electromyo": 8960,
      "tongue": 8961,
      "mad": 8962,
      "rls": 8963,
      "atase": 8964,
      "phic": 8965,
      "visions": 8966,
      "transthoracic": 8967,
      "oxi": 8968,
      "torsion": 8969,
      "nutrient": 8970,
      "films": 8971,
      "preventable": 8972,
      "enhancing": 8973,
      "principl": 8974,
      "adaptive": 8975,
      "adaptation": 8976,
      "reflecting": 8977,
      "sensitivities": 8978,
      "narrowing": 8979,
      "messages": 8980,
      "saturated": 8981,
      "038": 8982,
      "230": 8983,
      "cup": 8984,
      "e2": 8985,
      "tam": 8986,
      "rein": 8987,
      "advis": 8988,
      "pericardial": 8989,
      "spastic": 8990,
      "clip": 8991,
      "ears": 8992,
      "plat": 8993,
      "tencies": 8994,
      "obses": 8995,
      "morbidities": 8996,
      "completing": 8997,
      "throat": 8998,
      "neuroendocrine": 8999,
      "sequencing": 9000,
      "discharges": 9001,
      "confirmation": 9002,
      "denmark": 9003,
      "iliary": 9004,
      "enzymes": 9005,
      "flaps": 9006,
      "cyclospor": 9007,
      "electrocardiogram": 9008,
      "discrepancies": 9009,
      "c2": 9010,
      "g2": 9011,
      "kar": 9012,
      "rm": 9013,
      "che": 9014,
      "chair": 9015,
      "pole": 9016,
      "choline": 9017,
      "bland": 9018,
      "council": 9019,
      "genders": 9020,
      "adily": 9021,
      "quantity": 9022,
      "vigorous": 9023,
      "plaques": 9024,
      "abstracted": 9025,
      "trabec": 9026,
      "(≤": 9027,
      "recomb": 9028,
      "antic": 9029,
      "diversity": 9030,
      "exo": 9031,
      "irs": 9032,
      "relin": 9033,
      "infr": 9034,
      "197": 9035,
      "204": 9036,
      "viewed": 9037,
      "postgraduate": 9038,
      "173": 9039,
      "urology": 9040,
      "hypospadi": 9041,
      "facing": 9042,
      "homeostasis": 9043,
      "anaemia": 9044,
      "complaint": 9045,
      "rigid": 9046,
      "epidermal": 9047,
      "cosmetic": 9048,
      "independence": 9049,
      "recombinant": 9050,
      "iol": 9051,
      "inactive": 9052,
      "centesis": 9053,
      "chose": 9054,
      "manometry": 9055,
      "juven": 9056,
      "generate": 9057,
      "otitis": 9058,
      "squared": 9059,
      "intraoperatively": 9060,
      "considerably": 9061,
      "fitted": 9062,
      "histories": 9063,
      "attainment": 9064,
      "calcitonin": 9065,
      "bud": 9066,
      "qrs": 9067,
      "arab": 9068,
      "mox": 9069,
      "centric": 9070,
      "nondiabetic": 9071,
      "choices": 9072,
      "occip": 9073,
      "deline": 9074,
      "osce": 9075,
      "pathogens": 9076,
      "steatosis": 9077,
      "cardiology": 9078,
      "parenting": 9079,
      "visualized": 9080,
      "addressing": 9081,
      "vaccinated": 9082,
[...]
